[PAD]
[UNK]
[CLS]
[SEP]
[MASK]
t
##ng
c
đ
##nh
l
v
th
h
m
tr
n
b
ch
k
s
nh
là
T
và
d
##ph
kh
g
ph
ng
##ên
##ột
##ượ
##ác
một
##ong
củ
của
C
##ược
##iệ
1
##an
được
N
##oà
##ông
gi
##ăm
trong
##qu
họ
qu
L
##ân
##ày
năm
##ườ
##iế
H
có
##oài
##ại
##ới
##uy
các
##iên
r
B
M
##ch
S
x
##er
Đ
##on
##ất
2
này
##oa
(
P
##ành
##ầu
##am
"
Th
##ười
##ar
A
##in
K
##ướ
V
người
loài
đã
##ực
##en
##ình
##ật
19
##iề
với
##ươ
##ai
##ộc
ở
##ương
##inh
##áng
##iể
Tr
cho
học
đầu
##au
##ần
D
##iện
##ia
##ay
thu
số
##al
##ae
độ
G
##id
20
##ung
Ch
##or
vào
##ận
##ang
##ến
##ốc
##ính
##ước
##ường
##ao
##ây
##iến
##iều
##ức
##ùng
##ải
##anh
thành
từ
##ản
##is
như
##ững
tháng
##es
Ph
tả
##at
phá
ngh
##ời
##el
không
##iê
khoa
##us
Loài
##ập
đó
đến
##ối
tiên
những
Ng
##ết
##eo
khi
tại
vật
Q
Nh
thực
##iệt
ra
##ánh
thuộc
##ống
##im
ngày
thể
R
##idae
##il
Qu
##ục
##ơn
công
##ic
để
##ol
về
##iêu
mô
bị
##as
##ái
sự
##ằng
đị
##ài
trên
ông
chính
##ội
dân
##ặc
##ền
##ồng
##ũng
ho
quân
tiế
##áo
##ăn
##ích
sau
##it
##ăng
##ảng
##os
##um
##oàn
##ắc
##ện
cu
##ur
3
##om
làm
##et
E
gia
lại
I
##âu
cũng
##án
##ổi
##ứng
nhà
nó
##iết
thời
201
hoa
##ac
nước
động
200
##ượng
##ảo
##iển
##ạo
##ạt
##iệu
nhất
hiện
##uyện
khác
##âm
##ào
##ấn
Nam
##úc
##áp
##ạn
cả
F
##em
18
##iệc
nhiều
phát
##ỉnh
##òn
xu
quy
Kh
hành
##àng
##ắt
##át
##uyên
##úng
##ụng
bộ
##iểu
theo
mà
##ôi
##ễn
##ịch
hai
##iểm
sử
con
##ấp
##),
thị
W
##ấy
việc
##ơi
##th
##ạc
##ặt
miêu
J
##òng
##ởi
##ôn
##oại
xã
4
chỉ
cùng
quan
X
quốc
##op
##ởng
##ưởng
lớ
##).
thế
##ad
##ấu
hơn
chiến
##00
5
##ạng
##ộng
phí
##ul
nhân
di
dụng
thứ
do
hình
##and
còn
vị
##iền
tỉnh
định
đồng
xuất
khu
Quốc
viên
sinh
đề
##le
O
##ot
##êm
##re
Trung
cách
cuộc
##ẫn
##un
bởi
##ter
tự
phía
##ọi
tổ
##ag
##ợp
Việt
tên
bản
nhưng
chủ
lớn
trở
##óng
##ưa
lập
giới
dự
##".
y
##ách
6
vùng
hợp
rằng
điểm
##iệp
phần
bằng
cao
giữ
đội
Năm
kho
phải
nhận
##àn
##ồi
Gi
##ồm
chức
đại
##oc
trường
##ak
lượng
Hoa
Kỳ
trước
Trong
huyện
phân
gồm
điều
##iệm
Anh
hội
thường
kết
##ri
##od
##ển
U
##ướng
chiế
hoặc
giải
-
##òa
trình
##hi
qua
199
tiếp
thủ
sẽ
Các
##óa
tu
##ốn
##uyền
thống
cơ
7
sản
##ậu
cánh
##",
loại
trung
lên
##ed
##uyển
##ồn
tế
##tr
tích
phố
tiếng
sống
đi
đối
gọi
p
##ua
##ir
8
##ĩa
##áy
diễn
Y
mình
lực
##ằm
bắt
vụ
lý
nhiên
tính
##oàng
10
đêm
vì
bao
chi
##ưu
tạo
tác
lu
##àu
diện
9
quyền
hàng
thông
vực
đánh
An
đường
##ám
##ọng
##eae
##ig
phim
trị
##ing
##ắn
địa
##ạch
hệ
cô
chúng
##ếu
lần
##ab
khoảng
giáo
##ẩm
##ắng
Sau
nữ
mới
Pháp
##ệnh
Đại
cấp
bọ
##ưới
##ướm
đoàn
12
##ov
sĩ
anh
##ạnh
bướm
##ell
biển
##0,
thì
pháp
Tây
hay
Đức
cứ
cứng
thấy
thức
cầu
##ốt
đô
##ra
rất
đấu
bang
tranh
##ens
nên
##2.
trận
bay
hóa
tới
##ạm
bố
tập
tham
##ảnh
tàu
##êu
chuyển
mặt
máy
liên
Mỹ
##av
năng
Ô
gian
đây
##ion
##ob
km
##ec
toàn
198
nhạc
##ap
nam
##ùa
phương
truyền
##ne
Nó
đất
giữa
đặc
nhau
##0.
văn
đạo
##ou
hiệu
nghiệp
##ip
hoạt
##te
##ow
11
giả
Bắc
##ầm
triển
##ill
##óm
f
cử
##ta
Ông
đang
nằm
##ưng
trí
Một
tiểu
##19
##2,
##ìm
nơi
biệt
##og
kinh
chế
ban
thiết
##ọc
bình
nghĩa
tâm
dưới
tử
đo
Lan
##ỗi
đổi
đá
##ép
ba
chu
chất
cuối
phủ
197
##ry
Al
sáng
biết
dài
nói
thuật
danh
194
đơn
Đông
mục
châu
so
Ar
##ét
nhiệm
tăng
kỳ
bà
##út
##5.
trưởng
##ổng
đều
vẫn
tuy
##ỏi
tiến
thay
ảnh
đảo
trọng
bóng
bảo
##yl
gần
dịch
Công
kế
cứu
tìm
nhỏ
##aceae
Thái
ý
âm
##1.
##ian
##ent
biến
báo
##3.
##ie
bắc
##ard
##ich
tình
Tuy
đặt
dùng
ta
đông
điện
##ẩn
phẩm
Nhật
thân
##ừng
##6.
phòng
nguyên
bu
Liên
##4.
##ine
Mar
tiêu
Le
##ảy
##8.
nhóm
bài
##if
tương
tuổi
Vào
thi
##7.
cá
quận
nổi
tinh
Br
tin
ăn
##all
&
sách
Ne
chơi
196
tổng
tư
bên
mang
giá
miền
lịch
tướng
phong
Ấ
Bộ
Dân
Ngày
hòa
tài
##ậy
##ub
phục
viết
đưa
nay
sông
##ợi
lã
ngoài
##ọn
##ok
dẫn
##ran
##iếu
đình
Hà
##uyết
sát
##iv
##5,
biểu
hậu
##000
yếu
quả
##amb
##ik
##ton
ứng
##ina
17
##of
tục
kỷ
binh
màu
##9.
giao
tấn
thương
nhập
##úp
Độ
nhiệt
195
rộng
từng
##oi
Nguy
chiếc
Hoàng
bỏ
thần
##ut
al
đời
Theo
khí
bán
liệu
##ữu
##4,
##ạp
hát
trang
vua
Dương
dù
##oph
St
Ấn
làng
##ata
##ĩnh
dựng
bất
đóng
##ah
mùa
quyết
phụ
quá
Thành
Hy
hoàng
Ban
Z
##ach
hoàn
Bản
##ers
193
hộ
vệ
lo
chương
xây
ca
##6,
##ủy
viện
("
Cộng
##ud
chiếm
sở
chưa
##iêm
Nguyễn
Hải
lệ
giống
nào
##ạy
tây
cung
vô
chống
##ặp
vai
##ừa
##ẳng
##st
Văn
##")
##ist
15
thắng
##yc
cổ
##ấm
Á
xác
Â
nghệ
##ặng
mở
Gia
cái
tra
Tổng
tiền
##9,
##he
Bình
##ít
##úi
mất
su
##1,
trợ
##3,
chết
##..
Chúng
Minh
kích
mạnh
ngôi
lúc
##uồn
đạt
##uc
hạng
trấn
##7,
to
chân
triệu
cộng
##yr
##io
minh
##ant
lãnh
##ber
##8,
ngữ
chung
tượng
bệnh
tộc
in
Quân
gây
quản
sang
hướng
trò
##eg
mu
phản
vi
##ứa
vận
dạng
##20
giờ
hữu
án
Khi
Từ
Mã
##iêng
cây
##ửa
tất
chí
lưu
câu
nguồn
##ượt
xe
nghiên
Những
cư
##aw
yêu
sân
ký
ghi
##ro
chứng
In
tay
##ev
kiến
vương
sư
giúp
##áu
thư
vậy
16
hạn
##opter
Xã
đoạn
lạc
khỏi
ru
kể
##bum
(1
độc
##ensis
thuyết
##ếp
##az
chia
thích
192
##oh
##ãi
##ium
##est
##ắp
vòng
kiện
Sơn
ty
Nga
##ựa
phép
Nhĩ
dương
chọn
thêm
mỗi
##eb
cảnh
Vương
sắc
Sh
##sk
##man
Cu
cảm
hết
sao
##etr
Thổ
cần
duy
an
tốt
lấy
##ex
##ep
mật
núi
chú
La
Chính
Châu
##ey
Ngh
vấn
##...
hưởng
tỷ
##ib
191
Âu
##uk
Đây
trai
triều
thảo
luật
##ịnh
Ba
khả
##ẫu
ít
trực
##óc
##iac
14
mạng
##amp
em
##ea
lệnh
##son
xếp
Hội
Nha
huy
gốc
nội
Do
13
##ầy
đới
xem
Thanh
lời
chữ
đế
cố
Par
##ass
El
##ord
Pr
##ug
bại
##ii
ké
##ìn
mắt
chị
##-1
vũ
niên
giành
khiến
Lý
New
190
##.)
Chiến
giảm
sức
Con
Phi
Có
–
trẻ
##uôi
Tại
địch
Gr
bàn
de
Car
##end
##ana
##oanh
khai
Nhà
Tân
gặp
##ệt
of
Cr
##iếm
bầu
thiên
II
nhện
tuyến
As
áp
##ụy
189
Long
lợi
Tháng
w
đồ
Geo
##iaceae
tuần
ngoại
##tu
chuẩn
cáo
album
gái
hạt
chạy
##iếng
hỗ
Người
du
Xô
lớp
xuống
##ín
lễ
##our
môi
muốn
hầu
đa
##ủng
.
thúc
khách
riêng
the
Am
quay
chuyên
giáp
rồi
nghị
##ậm
##ess
phổ
##ax
Đảng
##ius
##ẩu
##ast
##ce
##uân
Thu
tỏ
(19
##ica
thanh
Hán
bổ
nghiệm
thấp
phiên
dòng
Giải
##metr
kiểm
thái
Hòa
Cer
cụ
##optera
phái
Thế
Geometr
30
doanh
Geometridae
##ắm
##uyến
biên
mọi
nữa
Đế
nền
##orm
nhanh
Đô
##land
giám
Hồ
tuyên
##ier
##orn
##àm
hạ
đứng
##ct
Kar
##ula
kê
tiết
##art
cực
thất
##ảm
vài
Cô
mẹ
25
cận
tồn
tịch
dục
##ys
quanh
Giáo
vây
Trần
##ont
##ind
ngay
##iz
2010,
Sch
vàng
##und
##ma
##ềm
##ue
##ão
Ngoài
coi
##ack
tưởng
mức
Nội
##ara
cửa
luận
thờ
giết
Lê
nhằm
lộ
ước
Tông
##era
##yn
phi
##ãng
thủy
##iidae
nếu
đủ
dựa
tối
pháo
Nhân
mặc
Trường
##eh
đáng
giai
Nguyên
bạn
đôi
kim
Noc
Hồng
##ans
##oll
mềm
lâu
##iss
dụ
bắn
bảng
ruồi
phóng
##lor
##ưỡ
ngôn
cải
đốc
##kh
kỹ
Noctu
Tư
##enn
trùng
##ox
Noctuidae
##anth
##ym
tho
##Th
##ern
Hàn
rừng
mẫu
Vũ
##uấn
##ẹp
##nat
tức
chịu
Bà
thập
tố
kéo
Họ
Sc
[
cấu
Thiên
##ge
Kim
""
Ở
1.
Ý
##men
##per
trúc
luyện
lục
tuyển
Không
Đồng
khẩu
##ost
##ann
rõ
buộc
##ort
##ore
##ãn
hải
Cl
cha
nặng
chiều
quần
hoạch
##ert
Chủ
mét
##ff
bờ
chấp
##och
xa
khó
##ycidae
bốn
Tiên
phạm
khúc
tôi
tốc
thổ
ngành
đổ
188
phận
tôn
hồ
dành
hôn
đàn
chứa
cạnh
lá
Ceramb
Cao
Cerambycidae
##ek
##ond
thưởng
trao
ấy
2011
##Ch
Sp
##ya
##."
Chu
Đến
môn
vợ
##ick
##aria
The
Danh
nông
##ain
đĩa
ngắn
##ez
gì
Kinh
##ock
##ọa
21
hại
Cúc
##se
chuyện
sâu
Lưu
##ườn
sóng
toán
thuốc
,
nối
##iễ
Giang
##ôm
thơ
khởi
lĩnh
##ón
187
##200
tù
gó
San
xảy
0
Is
##ưỡng
xỉ
đài
chim
hồi
Đài
##sinh
Bar
##ỏa
dung
##oan
100
##ada
Cal
nuôi
##iễn
24
nhìn
Col
Lu
trả
Hiệp
##ath
trạng
lửa
##yp
xung
vu
##Ủy
vượt
chiếu
trắng
186
##ation
Quảng
sai
đai
##ella
##urg
Ủy
thiếu
đen
Mal
##201
##CN
cũ
rút
Phil
##km
##yll
##aka
##les
22
Thị
##lin
##èo
Điều
##âng
2010
vốn
băng
Khu
mối
Cổ
##oy
##ỏng
31
Gu
Joh
##oth
23
tòa
xử
Sự
##ith
loạt
trụ
thuận
##ame
sứ
bức
linh
Pl
Thượng
ốc
##rys
tái
Chi
##úa
##ặn
Hai
súng
##ẩy
Fran
Ad
ủy
niệm
song
đầy
##one
luôn
tội
Ú
mua
Mặc
Triều
khá
##ipp
##ania
trục
mại
ngựa
##osa
And
chủng
dễ
khối
Ho
##eri
##aul
Can
phối
##reb
u
##ork
trái
tước
Đường
kiếm
Đậu
Ninh
##ht
##The
cự
mã
trách
##ầng
Phó
càng
soát
##onidae
đích
##tiếng
##ọt
Bl
##0%
##ico
suy
Bảo
##.000
##ice
suốt
đào
##na
bào
dấu
rời
kiểu
##oss
lòng
góp
vò
tạp
suất
26
hãng
tín
Trước
trì
28
căn
Hu
##èn
kịch
đỏ
chuyến
185
thử
Thủ
da
buổi
1,
ương
Man
##ena
bụng
Giám
vừa
##uch
mạch
##alis
đảng
##br
xét
dần
Or
and
đảm
Với
27
trời
##ler
##atus
##ops
đạn
Mặt
En
Ereb
Yên
##eth
##ei
Thánh
Erebidae
Tổ
Việc
US
##ka
Đào
##itt
Di
lược
tầng
xuyên
##ura
Thụy
Lạp
ủng
##ate
tải
cuốn
hỏi
Quang
truyện
chúa
##ust
xanh
184
##-2
gh
##ley
nghi
##ile
kính
cập
thịt
Úc
##ris
dữ
diệt
Un
thừa
trưng
Ap
##ãy
hủy
loạn
Ich
##yd
nhiễ
##ater
##ideo
xứ
Sal
John
ngăn
đăng
Hymen
mực
đương
##ino
đem
đột
##sil
TCN
##ict
thật
2,
Viện
Ale
kẻ
nổ
lính
Har
##iana
Phương
nguy
##iềm
##ett
phê
hàm
##neum
##inc
##ama
nhờ
Lâm
Pol
##omb
##up
##ael
vành
chóng
lao
##oz
Be
khóa
pr
thí
##de
##ides
Per
họa
##omel
lượt
Tập
hiệp
thoại
nạn
Nhưng
##ani
đẩy
Huyện
nhu
Phần
##ary
Vì
trừ
Ol
Cơ
mộ
##tt
dị
rêu
##isc
##ém
Trương
##inae
Chrys
giác
##att
Xuân
183
tò
Ste
vọng
ánh
##-19
tách
“
##ửi
bước
Ichneum
##ale
##onia
##old
##iếp
##sh
Tam
hạm
##ita
Ind
khắp
thụ
bé
##Tr
##ca
Phú
Định
Rom
##ood
huấn
29
##ect
quý
##pt
##act
ma
mm
Ber
Sư
sớ
##la
Phong
phù
##mer
##rich
##"),
##nataka
Karnataka
##50
Quận
Chí
ô
hiểu
Phật
cắt
nghe
Ichneumonidae
##ague
##uổi
điển
xâm
##ash
##own
hương
trào
trải
chó
kháng
máu
##ott
##ron
Trái
gửi
thú
cầm
Ngô
sửa
cường
cậu
chảy
nâng
##ola
liệt
##aur
chỗ
lai
2.
bày
thiện
##asil
teh
Hymenoptera
la
mưu
nhiễm
Ed
đọc
tehsil
liền
đẹp
##ish
Rêu
##ane
##burg
tuyệt
hiểm
##").
Lai
##ose
##car
ổ
tầm
##imon
##ark
##Ph
Re
sắt
##odes
##ữa
sớm
##ala
##ặm
sơ
##ity
thăng
##ald
dọc
đe
cai
##ứt
##ly
tán
Ser
##ẵn
Hưng
##ằn
phút
##II
##ida
thoát
ai
##ix
màn
Nhiều
Su
##ime
Ge
a
Hiện
form
##ld
##ùi
Để
nửa
khắc
##ora
##va
Tòa
##ịa
dạy
dọa
thù
sáu
bí
##]]
thao
thăm
lông
##ophyll
##ver
50
khảo
bão
giản
dầu
##gh
Ab
Pal
xin
Rh
Về
ấn
3,
##òi
##ậc
chồng
Er
'
hơi
##iam
Ai
##ũi
phó
Phúc
Nếu
##berg
Lương
chỉnh
xúc
kênh
Will
##rom
tiện
Cục
##ros
Đất
York
Bo
##ines
##ộn
Đạo
2007
thước
Ag
quán
##10
bậc
săn
tháp
ngầm
##ins
##õi
đỉnh
##ót
Ac
Tỉnh
He
40
áo
truy
##ashi
##ll
ẩm
Vĩnh
##ila
Hồi
##esia
Ngọc
thôn
ex
##aj
##ars
1999
trại
Số
##ho
bò
##5%
chặn
##erm
##ano
tan
ví
##inn
thẳng
Wal
rơi
đúng
Canada
Rob
De
bom
##ifol
tặng
##ona
Tên
[[
##ille
Com
ngược
##úy
xạ
Thủy
2006
Camp
Paris
lương
##gi
sẵn
Chrysomel
Chrysomelidae
tá
cỏ
##alia
Co
chẳng
thượng
##ima
##sch
League
##ite
##ych
Cách
quảng
##ide
bãi
lâm
##orld
lan
Tiểu
Tử
lẽ
##ene
Loan
ly
vuông
Mad
Char
Áo
lẫn
(18
gắn
nghiêm
Mor
##yph
##idaceae
##ight
Arct
côn
tránh
Na
formula
Ả
Hạ
Cor
##ze
khiển
##ies
nhẹ
Mon
Thời
Sa
##ini
Philipp
##eld
##aya
##amm
phiếu
##ươi
USD
##30
Phổ
Chỉ
Cuối
siêu
khoản
Mac
Ang
chùa
Quan
Thông
thiệu
video
Trịnh
Địa
Tống
##err
trích
Trich
##Ng
Brasil
tỉ
##ụp
Gre
##ari
can
hấp
/
cm
Bồ
vĩ
Du
Os
bác
Mông
phán
tai
game
##icus
quê
##pl
Tự
Đình
nắm
##ota
Uy
Mich
##els
Sam
nhớ
Se
thác
gắng
ràng
Em
hút
Cuộc
ngờ
đáp
khô
đoán
thuyền
dây
##iinae
Dav
sợ
đuổi
##""
Hậu
sung
2008
Linh
hoá
j
##lav
Đội
##0.000
Phạm
nhật
Thiến
Cá
Cập
0,
bề
quỹ
họp
##eland
##sia
##eter
tắc
##istan
Arctiinae
ưu
khăn
quang
##are
Chương
##ren
Tu
##co
ổn
4,
Khánh
cờ
cặp
thánh
trồng
xương
lựa
nhánh
##enz
cấm
dậy
##ames
##ela
đỡ
(2
##oma
World
Điển
182
##én
##ustr
chữa
##inidae
##ía
đền
cựu
thậm
##su
Trên
lưng
dưỡng
Geor
Hóa
Mel
Nor
nghỉ
đuôi
giảng
2000
bật
gió
trú
nghề
tắt
##yg
thua
Đối
hùng
mời
hè
##ole
##tern
Tôn
thiệt
Nghệ
3.
sáp
sắp
hôm
trữ
Triệu
##ha
tàn
rắn
##rid
vườn
dặm
gà
cảng
Her
##ilidae
##Ar
chối
Chúa
Me
##uz
5,
##rig
##Nh
Sân
##ney
##ói
##một
hài
##rist
lui
Gl
gỗ
đau
Bal
nghĩ
món
Cũng
##12
ống
nỗ
sp
phạt
tống
trăm
##ace
ngang
tàng
##unt
khủng
##ke
##ner
Khoa
chuồn
##/19
phức
##der
Wil
mẽ
hoang
Mc
Phòng
##arg
Lat
##bert
Thống
##éc
8,
bánh
##elle
##umb
##age
st
Sĩ
##ois
Sở
Bài
Tấn
##li
##40
##60
##ve
##arp
tận
ngân
võ
trốn
Cùng
##ward
rãi
vong
e
mười
uống
##ượu
Thạch
##bon
Cảnh
hồng
##iforn
Sm
Air
mưa
##ừu
Cup
##%.
cơn
giấy
Đầu
7,
kì
##ợt
Hiến
Tiến
dãy
Phan
ích
##eck
##tic
Hen
Bang
chinh
##18
##yria
khỏ
6,
khỏe
Hung
Rập
Ben
tia
Alex
III
##aint
2001
##af
bạc
hổ
##aris
phường
##Al
cân
##sen
Elater
ẩn
Học
Đan
chấm
Cramb
Bur
Tor
Elateridae
Tần
2009
Bra
mũi
chắc
nóng
##ere
##sky
Bí
quyển
Mus
Lục
tờ
hiến
đẳng
##oe
##outh
Sing
It
##int
##oon
Lực
Vân
chép
Nữ
tụ
miễn
Mai
đực
10,
ngọt
Thuận
##ifornia
Crambidae
2011,
rượu
Mùa
hỏa
kém
##ake
vỏ
##2)
##ji
bá
William
Như
Thần
##che
Là
Mil
##ote
My
##ais
##ướp
web
tùy
##ester
hòn
đệ
9,
2016,
##ive
Huy
Paul
##-3
Nghĩa
##ons
phe
Ir
California
##seud
##itz
Mic
Thiếu
##eria
long
##St
##eta
##ịp
tạm
##da
60
##ull
dày
Đoàn
##inus
##iy
##mann
##oảng
##80
##rad
hô
ngũ
Hệ
Tất
soạn
##ele
am
Sài
ném
##ham
##esc
Dr
##inia
tường
##ớt
Grand
##ign
Philippines
khán
góc
vịnh
mỏ
Thom
Ven
##FA
Kiến
##que
Vua
##11
pl
Ma
bạo
2012,
xưa
Hầu
Val
##5)
##rd
đám
Sinh
ax
##ien
2005,
Austr
lối
tấm
##ih
##ts
(199
##/201
rối
bảy
Bel
tròn
kg
lỗi
lưới
Lã
Cử
Nghị
2004
Điện
2015,
Hữu
bèn
đứa
mệnh
đoạt
180
##ory
##awa
vú
thỏa
2014,
Cam
Lễ
đồn
##3)
Ngụy
cừu
lạnh
##asc
##ook
đức
2004,
hiếm
Gòn
thuế
2013,
Es
Str
##ense
On
4.
##èm
vỡ
Bọ
##yo
Đặc
Fre
Tur
##TV
Sao
đợt
Được
cục
tổn
tệ
2007,
##illa
Arg
trứng
##omm
nâu
Trichoptera
kia
(200
thẩm
Tuyên
giọng
##yt
Lou
Kr
Câu
Fri
Đà
Lin
Cap
vẻ
##oides
All
mong
##70
Lộc
mạc
đòi
2002
Champ
Tương
##ốm
Viên
##hip
Ur
##ase
Tào
nhảy
ngừng
Cát
##ba
Sông
chặt
Tach
##ows
dàng
Ru
##onesia
##ria
Cho
Lúc
Trận
vẽ
Mart
Tiền
Cả
khổ
mái
sót
Bay
2008,
Quý
##we
##entr
cháu
##ail
##chữ
Sl
el
Và
Lạc
##ỳnh
2017,
##ck
##ean
Bol
##6)
35
Trang
Thường
##wa
##omer
Saint
voi
giàu
2009,
##ure
Meg
##aus
hư
biện
cháy
##ited
Indonesia
##ova
Go
cam
lỵ
##ifolia
##1)
Vi
Limon
Mos
san
##oria
##ric
Mỗi
Album
Duy
ám
Toàn
##4)
##ợn
##atum
pha
11,
Christ
khơi
thai
Bá
##ment
Luật
khám
nhắc
Ví
nghèo
Mont
Tok
##ors
Ly
2016
điệu
##ks
Kông
viễn
Limoniidae
tim
von
##-4
Pan
chắn
Ngay
Syria
Tim
phỏng
Robert
trống
2005
##uss
mắc
##ira
At
hung
sóc
buôn
##kra
Bạch
sa
##ions
sub
Hoàn
Af
So
hu
Séc
Wind
##ew
Cẩm
chạm
thiểu
chậm
Ant
##rael
##14
2006,
##mar
32
##ult
nguyện
##go
##nay
Mag
Kết
dõi
##7)
##ush
You
Ze
##15
##pr
Lào
West
cướp
ar
đua
Hal
thạch
We
##use
(201
lôi
trúng
##lo
Môi
ninh
Gal
cất
dứt
khấu
chở
tám
Hành
Thân
Cung
xưng
Tachinidae
đốt
Franc
##ilis
Ukra
chăm
##Fran
tọa
##tain
Mat
Dự
Hungary
##by
giam
Sar
##esh
tảng
chuỗi
##pha
Phát
Hương
##ki
Ex
Fr
ga
##alli
Ca
##ski
##tên
Tính
##iếc
vinh
Ngoại
##anus
cốt
tri
đón
khái
##oto
hà
Mas
##13
##iat
ac
Mer
##ẹn
Cast
Sử
Jack
Israel
##air
2007.
mồi
##ko
sàng
##akh
##ial
##8)
##anda
2013
vạn
ranh
Xuyên
Cầu
##25
hy
hứng
##ten
khẳng
Alexand
Võ
Shi
##lad
##ulata
##17
##45
George
kêu
thảm
tần
cãi
Te
Thương
##ali
Il
ác
dừng
##ony
##tein
kiêm
##uchia
##ụi
i
##aga
##iệng
##NE
thả
đồi
lái
cỡ
##ky
##anc
gr
##ee
vir
Biển
Louis
##16
12,
ven
2012
##boa
Gen
+
Malay
45
Bor
triết
##ire
##ring
Nhóm
##aud
Rich
hoà
2004.
##ớp
Min
##pan
War
##ori
##sa
Bằng
Đinh
##ếch
cản
##ema
Mé
ngàn
##opsis
chín
ngọn
vui
Hol
kèm
James
##An
lang
Luc
##off
gấp
##ool
##aker
##roc
ox
Eur
lẻ
ngồi
chứ
may
##75
##79
Mi
°
United
khuyến
2000,
##ove
quen
Sw
Campuchia
Fl
Thư
Dung
thải
bối
cương
Mu
Med
##ford
##ja
##igh
2006.
sẻ
Hel
2014
##ụt
##osh
##rop
gen
Dưới
Mạch
tiêm
##je
##ster
Luân
2018,
tựa
Lịch
Ec
cột
Mo
##người
Song
##"".
ha
Gar
đầm
##ville
Ireland
##une
##iki
##olf
##ophyllum
##eph
huyết
##ple
Bul
Don
vết
phu
tân
##ago
5.
axit
Dù
Charles
hỗn
2008.
sánh
Thọ
##pe
##ps
kỵ
Dry
tông
trạm
miệng
##NA
##ger
##ux
Tiêu
vững
<
Met
##apore
##aea
Bên
dư
Ak
##ênh
lũ
Li
##enia
##yst
36
Sol
##éo
##bia
##aland
Phiên
##com
##86
##erus
##orus
##):
Phim
Cha
dàn
răng
##90
80
##oo
lũng
##ios
gai
cát
2015
chìm
David
Windows
=
Biên
khích
##76
cú
##-5
##ato
Đó
Mục
xo
kỉ
##ìa
Trời
##now
ngủ
thuê
##za
vở
dã
đẻ
đậu
##entina
Hạm
Mex
Ver
Scot
##lan
Hau
cụm
##trong
sữa
Colomb
Singapore
##ùn
tam
Vùng
Hợp
Ger
Chân
##ker
mảnh
Ukraina
for
chấn
##eng
Tề
##/200
Sant
##osc
##pic
##32
##In
##itan
chăn
Thiết
khuẩn
##ero
##35
##no
##uba
Del
rad
dinh
rã
1945,
nương
##Qu
##không
khuôn
Malaysia
500
bụi
gl
Huế
Phụ
Ath
Trị
che
Giao
Frank
70
canh
##yth
hắn
Thiệu
##pes
##ượn
non
##có
Ngân
lỗ
car
Hàng
Vinh
##ogl
Jul
##48
FC
##ield
Mạc
##III
Trọng
Mexico
##ling
Lăng
##ade
viêm
Mur
ngại
xấu
Chiêu
##Cl
##con
Tom
ung
##ùm
Tài
2018
Kit
Henry
##%,
thang
##alus
Jose
Vir
##);
sh
Carl
##ami
Inter
thuần
úy
Kur
##ied
lồ
Lond
Tham
##Br
6.
##tron
trầm
tung
khổng
##pa
2003.
Phước
##ador
thoái
##unc
##iano
##pid
##res
Sil
##ashing
##BC
Tác
Thứ
ngư
thầy
##42
Tak
xoa
##Kh
Cop
Liêu
##78
7.
##36
is
co
del
City
Nhạc
##ias
Kể
Si
Eug
sụp
xuân
##72
hẹp
dường
thách
##9)
Xương
##ashington
Tan
trương
mê
Hyp
2019,
##ti
lọt
mac
phúc
Đôn
Cas
lợn
Tuấn
Trưởng
300
cán
giận
48
##SC
Bỉ
2017
ngợi
chợ
ép
ghế
##board
Tiếng
Vệ
Anth
##500
gu
##ence
Hiếu
mọc
Khoảng
##cz
thép
Argentina
##inea
Mik
##imb
hiển
65
##xico
Flor
niềm
già
##oman
xám
Bu
Haw
Maria
Neur
##iver
Asilidae
To
Lib
South
##AS
##aki
##asia
màng
México
lạ
Âm
##-0
mạn
##ese
nhấn
##62
##rat
##38
Cúp
##ourg
Quyền
##erson
2001.
Tĩnh
thám
##üll
##39
##hay
##ựng
Đảo
đập
Iran
gián
sc
ức
##aeidae
Lee
Nob
bọn
##tra
hang
##ternet
Zealand
##way
##alin
2000.
Washington
##chi
38
nét
1990
no
sợi
than
muối
##oft
Wh
Huệ
Colombia
##ise
##ome
##ram
dao
não
2005.
##ộp
179
Hùng
London
hoảng
##Sch
yên
chờ
sạch
on
vợt
Nghi
Điền
XI
##iflor
##oot
chụp
uy
Truyền
##ild
cưới
8.
181
##ẫm
tiềm
##chn
dâng
dược
thận
anime
z
Alb
##uki
Còn
2009.
phú
2002.
49
Lept
##ye
Kon
hào
lằn
Cat
top
đàm
khoáng
##ance
Tàu
tháo
Fried
khung
##46
##ept
Tứ
Đa
##wood
##danh
Dar
Venez
Ç
mãn
khôi
##ulidae
90
Lang
Enter
Dryopter
hạnh
##ypod
##anthus
##ựu
(;
bè
##otein
##mm
Av
mèo
Khang
Hit
Hoài
mươi
duyệt
##rie
Cần
##out
Po
thọ
Hi
##ube
##Đức
sơn
cà
##yan
##ùy
Michael
##AT
##ga
dải
lọc
lỏng
trông
Thomas
Op
Ott
1999.
##dr
##ft
##ional
##illboard
Lãnh
trộn
Giống
Vị
##oshi
tứ
IV
Kế
chút
thiệp
Max
##me
##unn
Đệ
bọc
chư
##ylv
dịp
hồn
##do
##ats
thợ
Nông
bạch
##34
Neuroptera
Pter
##bur
Cửu
tóc
##eles
##ilia
van
Cụ
10.
##den
trần
Huyền
Tướng
(,
ngự
##ava
Huấn
nòng
2010.
Phái
par
ob
nig
lăng
ngập
##65
Ấu
Bry
##org
xoay
1990.
##ings
Eng
##alc
##ank
##uel
Cos
Dis
Lam
Thừa
##abaeidae
##elm
Cái
##oli
Tô
ưa
##aph
Nap
ngực
2011.
178
Môn
Tex
bấy
đợi
Sel
le
Bos
##cus
Phủ
Sai
##từ
##năm
202
##eli
Ju
hộp
Thực
1995.
phẳng
##49
Mẹ
nô
Quy
khuyên
mơ
Cuba
tô
##ynch
2003
Miss
##oid
##icol
thằn
##Sh
##00.
##isa
Thể
nề
xong
##oire
kín
Nhất
Chiếc
Hir
Tai
1991.
chuột
Richard
Pat
pol
##Sm
Ok
hề
nhuận
##ito
Tình
bùng
Edward
lân
Quyết
##37
##85
##Scar
bia
tĩnh
Quần
Pseud
Gh
Dic
mai
##";
Ky
Lợi
Rad
dáng
Scotland
##tức
##ision
Đỗ
Viễn
Nghiên
##ink
Hot
##eridae
chàng
##tainment
Tokyo
Berlin
hoan
$
39
bột
1998.
Champions
##ator
52
hâm
Jac
For
nấm
Khắc
nhạt
##uela
##pur
lật
1993.
##47
##MS
##imm
##ilus
Ass
1997.
Pak
per
Sang
ruột
175
lắp
mấy
##như
TV
Ul
##elia
at
ái
Coll
Van
##Scarabaeidae
Port
nghìn
khen
##​​
##to
Pe
##ican
Texas
Vict
1980.
Polypod
alb
##be
##eol
##di
mát
nỗi
Tường
##Le
##tus
sườn
Đặng
tuyết
kịp
ếch
Kam
2014.
​​
Mah
Ram
Sen
Olym
Wales
##ette
##các
hưu
##icidae
thung
Ps
##itch
xưởng
Friedrich
##Pr
##app
##over
##ivers
Ngôi
)
Pt
Ken
Mộc
##ticidae
Salticidae
Phù
Hình
##26
xóm
Manch
nhượng
##onn
rau
đèn
Nig
lầm
Ox
đựng
Lao
Sách
2003,
Tar
cưỡ
hầm
điệp
1992.
Vụ
lưỡng
Entertainment
##CA
sưu
##3),
Park
Chánh
Pomer
##oug
##pal
##ello
Diên
##ND
##enc
Ro
Mao
men
chôn
huyền
protein
9.
Est
Sem
##nam
as
##isco
thịnh
Vol
Penn
##và
tang
##lu
cr
Hơn
##iph
Ob
giây
Thuật
##red
##wig
##Mar
Andre
căng
##van
nạp
2016.
Chile
##31
Sum
tươi
Az
Huân
1999,
##ariidae
##21
Des
##3%
##DP
##agn
##oni
Bệnh
Phân
Phía
##olo
##zil
##ulus
##alt
lúa
##89
##ansas
##lı
##iễu
khứ
Jackson
##ij
nấu
2012.
400
Cói
Cảng
vang
##uck
ngã
ngưỡng
47
##hoặc
Music
46
##ower
Ư
##uri
##gar
gỡ
Mark
Tạng
##iet
##oton
mãi
##ớn
Động
Apidae
##uke
bơi
##OS
Sải
dời
##amin
Rec
1998
Vườn
##aut
##uất
37
##orum
Virg
nàng
##oad
##orth
nhị
##escens
Thắng
##24
##ogne
Lind
##uth
##oda
##ound
Cải
##ocarp
Quản
(5
2015.
Video
##29
mỹ
##endr
Black
dò
Bùi
##ado
##agon
##odon
Ham
Tin
Kitô
phẫu
##ướt
##ím
Ter
bút
Plat
Simon
ấm
##erid
lắng
Joseph
##BS
##sau
Dom
Seo
##iform
cong
##its
Los
##eries
Lượng
XV
##ogon
hyd
##yz
đậm
##osp
##ray
Cry
Venezuela
sạn
Nước
Tiếp
lò
She
dẹp
hạc
cổng
lồng
1891.
##88
##lô
##ưỡi
Aug
Jon
##ianus
1990,
##ẳn
Dịch
##win
lãm
Mosk
ghép
Thiện
Mol
bồi
phế
2013.
##erb
ảo
##cel
##mon
br
Ku
Bat
Kaz
Nik
treo
##ode
đáy
##stant
##27
##reg
mây
##aster
Sz
##omy
Báo
dâm
Thạnh
##iop
##ouv
sàn
buồn
##enburg
Megach
vé
nit
##field
Trinh
Internet
chẽ
lệch
Kỹ
Ros
Tâm
suối
##44
##ộm
Sur
1980
Barb
Carol
55
Eu
Lữ
op
Hàm
Ngũ
1996.
Smith
điền
##69
##sc
##don
##ubl
Vo
##ipes
Red
##.,
##ône
Gm
củng
##erg
Bị
bar
##actyl
##ür
May
flav
##1%
##oln
Nov
lặp
Phục
59,
##ior
##raq
##ẵng
##ban
dội
Super
##ales
đốm
Dryopteridaceae
ấp
virus
##dor
##ics
hứa
Tùng
Linyph
Cực
Pet
##acbon
giỏi
North
Trăng
##isch
Lập
Pic
Thục
Martin
##iga
##rec
Anton
33
Bab
Hitler
2001,
##xi
UE
##ream
150
xóa
##ennis
Brazil
##Tôi
Lỗ
Die
hỏng
##anch
##itar
đáo
2017.
phun
##rey
thuẫn
Ân
pop
quét
tuân
##nowiki
thỉnh
##aes
Tế
inch
nhãn
chuông
dỡ
Ruồi
Tháp
##ỗng
Hoà
Thơ
1919
rock
Peter
Id
lành
Cương
Columb
sổ
##estr
hẳn
táng
##erv
Nar
##abeth
nhầm
nhắm
cl
Gir
gợi
Karl
1988.
Moskva
##yb
Cà
bây
cạn
Slov
FI
Linyphiidae
Pu
đói
Siêu
ruộng
##,"
##ér
##oat
34
leo
Amer
Brit
mảng
##77
Ð
eo
1985.
Kính
Rock
nhịp
nở
Cai
##-6
Soc
Chung
Oc
12.
gan
Bất
đòn
Đăng
##France
1989.
##ycl
##được
Peru
##ấc
##xem
Nho
2019
xứng
##omor
Mật
nêu
##iflora
##azz
bê
##ellidae
##aii
Las
Jean
mượn
Steph
Thiền
Nav
Pakistan
##gan
đâu
##28
75
tật
Tour
2002,
##gia
Art
gạo
lãng
mic
quái
nút
##iro
##usa
Tú
##ets
##olis
##osus
Ple
bền
lão
cống
##Gi
##Con
Cây
Vạn
nhì
Micros
##gr
Nẵng
##1),
##ates
Iraq
1986.
##tone
CD
Div
Ped
Nguyệt
##ope
##owa
##ical
##ough
lam
##5.000
##uador
kiên
##eda
##bach
gói
bó
##agas
Han
Sph
dốc
##Com
##aux
##kin
##las
Lo
##otus
Tín
1984.
##Người
##ylvania
Dicran
##adi
##iata
UEFA
điêu
##ef
##-201
súc
Hook
##</
##icum
mừng
soái
##68
##kov
##andra
Polypodiaceae
##-8
Mãn
Trà
##elt
or
Lyc
lừa
11.
trâu
59,5%
đỗ
Hill
Francisco
##uma
bi
##unk
Ts
##ghan
tràn
##eni
lõi
sừng
##ogloss
trinh
Dan
##let
20,
Vịnh
chào
##còn
##shi
va
Bad
đúc
dê
Máy
##rev
##uộc
Ni
rạn
1975,
Hướng
Manchester
quát
Quỳnh
59,5%:
Call
1930.
##Đại
##ongo
Giai
thôi
##Bl
##SE
##yx
##ẫy
1994.
##CP
42
##chen
Arm
Far
##VD
##stan
19,
thô
nồng
##)"
##4),
1/
##atri
##ogen
##Alpes
mỏng
##="
##MA
##eff
hã
##unct
##ânia
Quả
Eliz
Mary
Bayern
##ẹt
Les
com
Australia
##alk
Bas
##ypter
Bern
nhựa
##La
##Việt
Ele
hẹn
rạp
1975.
Ecuador
tốn
hằng
Austral
tản
1970
Hiệu
##-9
##ball
Lev
România
##67
Jo
Sk
Shin
ki
Que
##edonia
1980,
##IA
##2),
##isp
Bah
##incoln
##ui
Bố
Đỏ
Khê
Som
##Rh
im
Pot
Top
gọn
chục
Ke
Mod
Myr
bội
rồng
1972.
Tay
##ophyllaceae
##ID
##ık
##bit
ft
##ider
Mill
##sylvania
##eop
Fab
##icola
Giới
Tuần
hoại
phổi
##opidae
1987.
##una
DC
##rach
Bon
sch
Gmina
gương
trượt
Angeles
##33
##ví
##ủi
1981.
duyên
##bao
Dub
Gab
chiêu
manga
Ga
120
khỉ
Gold
Thel
##Billboard
Cụm
Sak
túc
túi
liều
##aro
##raz
Fu
VI
1960
Chấp
King
Wall
##isia
Tôi
vời
##ahalli
Award
Latinh
##ump
##ène
Kl
Hem
cúng
1940.
Lư
##ther
Tel
Roma
Florida
##orr
Tỷ
##atch
mạo
quỳ
đứt
Trạch
Microsoft
##AN
##fer
Diễn
Thịnh
thẻ
vịt
chừng
Hawaii
Nigeria
##ords
mùi
oxy
Lincoln
Lệ
Trân
Tw
fe
Kan
##ander
##íp
##ủa
Vô
1997
1970.
Guinea
##asa
##rit
Hổ
##-200
##55
##iang
Pap
Loại
Viết
##ophila
Albert
Pennsylvania
Thi
1978.
##ır
##port
Mạng
##linois
##alm
177
18,
Santa
Nhờ
##hio
One
Mord
IS
##olly
Alg
##omat
Tùy
Thay
bốc
Mười
Wood
##ictidae
##national
##opus
Jam
Lim
hôi
##ambon
Tháo
##aun
##ven
Mes
khẩn
lô
des
ruf
tỏa
##otrich
Chiều
##agi
Reg
##Trung
Card
Ottoman
##well
mìn
vải
##ocker
Star
1905.
##usc
Pyr
cối
1982.
Bh
bữa
ong
Illinois
##iel
No
Rô
ad
##arus
mòn
tha
hoãn
2018.
Elizabeth
Zh
Game
giấu
kiệt
Green
##”.
##andr
Dev
hãm
##str
Che
Dem
Eri
Tri
Seoul
Dak
1995
dũng
##ati
Mir
sốt
##66
##TC
##uro
Ay
Cre
túy
Khmer
##eu
##opl
##arch
Bell
Play
Prem
luân
TP
ngo
##antha
##oster
Schl
##olk
Mạnh
##anna
lũy
1983.
##ny
##menia
Thất
lầy
1960.
##ave
Quá
ten
Khai
hưng
##rox
##ngày
xướng
##87
##-10
44
##aser
múa
cuồng
huống
khuyết
##mi
##agu
13,
1992
Hoằng
##urt
##uto
54
##icul
Por
Khải
tùng
Disney
##AR
##jan
hối
Dòng
1936.
1970,
##ous
radar
##ów
##lex
nợ
Kir
Len
làn
Pi
Bạc
Sri
ướt
Bulg
Vòng
xích
##-20
##asp
##aeus
##oung
Rod
rào
Olympic
##ulf
Tả
tím
Mass
Tăng
Thăng
Phường
##ipulidae
##anga
ion
##ovich
Tinh
##59
khía
##utt
móng
Điểm
Carib
Univers
##ün
béo
cúp
Town
##khoảng
##iff
##oup
##ogle
End
Cent
Kiều
##ouvelle
##CD
##zh
##òm
duệ
Virginia
##helm
Neo
min
##any
##arm
Ray
nộp
1945
##abr
##elli
##olog
Love
Oscar
triệt
Armenia
##ni
##ols
dắt
đâm
with
Diego
##23
##aku
##ollis
Vill
##etidae
##ın
Lor
Đĩa
##aurus
Diệp
Myan
1906.
Afghan
##itter
phiến
##-7
##rea
##uka
##aman
##ornis
1991
##Tipulidae
"(
##ange
##igan
Dip
Jun
##idium
1908.
Italia
cacbon
Ep
mỡ
##CH
##umi
mờ
ang
str
Đơn
Thập
Halictidae
##100
CH
##atra
Fer
58
cậy
Minn
Victoria
Ah
Ohio
1912.
1929.
xá
Giá
bến
thỏ
##gu
Im
##annes
Benth
Nobel
##phor
Túc
Đốc
Thelypter
##sur
Mộ
XX
kĩ
rô
##agus
Dor
Hay
##64
##FC
Cấp
Kat
mâu
sói
đắc
Dũng
1941.
Baker
##oku
Mak
Sab
Tum
nhi
Adam
Xa
##edia
##rian
Pas
Wars
##Sp
##ugu
##antes
trật
1913.
##ury
Kỷ
Od
lạm
1996
Hypn
lườn
##enberg
Serie
##si
##ýt
##SCO
##ife
Bởi
Gra
Kho
mốc
Afghanistan
##acc
CO
Cỏ
Ko
##ista
Gần
hảo
nhạy
trừng
##bl
##ism
Cy
mù
Kal
Sim
Australasia
Jan
Men
Sav
Kiên
ngón
nhiếp
##sp
##ươn
##agar
##trước
Hydr
Trấn
##war
64
kẽ
Dol
Lab
Sáng
##osidae
##aire
Hỏa
Nic
Quỹ
Comm
ur
Tối
bàng
##bophyllum
##ays
(3
mì
đắp
Bảng
Quán
chốt
1934.
1960,
Bulgaria
Lần
cài
ngộ
Hạng
##22
##esota
Norm
Ta
bù
##agne
##iger
mầm
##ement
1994
bông
##ioides
Google
;
tiệc
trăng
##uce
Stud
Ev
Lud
Mid
Pier
chém
##aru
##ily
Eth
Mau
Nói
Rhe
sọc
Wilhelm
##ume
##urn
Den
bớt
Vàng
ngai
1916.
1979.
Bourg
Minnesota
##.-
##quita
1942.
Megachilidae
Qua
##ootball
guitar
##ear
##eton
##theo
Rôma
##itr
AP
Pav
Trí
nho
Bill
##opsych
##ait
Đạt
Chùa
Quách
viếng
##fa
##Rob
##amo
##eto
##opa
Căn
phấn
Gramm
tảo
Müll
Madrid
##oba
##imus
Bến
ngọc
##bor
##ngh
vay
Hall
##ophora
1973.
Cocker
nghiêng
##atar
##inal
chổi
giáng
Stalin
59
et
rác
xen
Club
ngẫu
##ơm
un
##elsea
##auc
##iev
rẽ
##ente
##icia
Cyr
Măng
1900.
1998,
Eugène
?
hi
##thur
##oga
57
##urus
Mẫu
quế
##inata
Mand
Serbia
##quitaine
##":
##ady
##ude
bl
ôn
Net
đãi
hố
Sams
ngừa
1944,
Latin
##TT
##gen
##éon
01
##otte
Sul
##omyia
giật
2019.
Arane
Records
##AM
fr
đà
##ique
##ylon
Colle
Milan
Chelsea
##por
##rai
##athe
Kol
Nhu
thở
Kun
kil
1968.
be
##oceph
Astr
dính
1909.
##via
cal
móc
##enter
Làng
Pott
Xiêm
Pri
Đôi
đạp
thơm
##aum
##mid
##eder
Ann
##những
Thẩm
1895.
##Sc
##acia
##NESCO
##oglossum
ấu
20.
DVD
Nai
Sat
dám
##odont
Mường
##anum
Bốn
met
khớp
##ington
Leon
ngon
Trình
nghịch
Castile
##/0
##ère
Bảy
FIFA
##Am
##astr
##pool
chướng
tê
Bir
##oidae
lưỡi
##"",
##hir
14,
Bud
Mậu
xấp
##beria
1922.
Brach
Croat
Cockerell
er
##plen
Hiền
Tiết
1963.
1976.
Constant
Football
##99
##IC
##ili
##vin
Xá
##agen
##ifer
##ishi
##line
trà
đeo
miếu
Phùng
ân
ơn
Hãn
cor
trôi
Apple
UNESCO
|
gấu
Tưởng
International
##po
Ry
ab
##érie
hãi
##ridge
Real
##odactyl
##ás
##enna
Càn
Lạt
Đen
1993
Nhơn
##odidae
(4
##ison
Sand
elec
##nia
##ovo
41
Rio
Sin
##ather
##ational
thoảng
##rh
##té
##00,
##ref
17,
Fil
Giả
rub
##ident
##ifera
Girl
Congo
##jo
##Anh
16,
Nat
Pro
cóc
ngụ
vẹn
feet
Huỳnh
ngưng
##aska
##etta
Sud
##ustin
1910.
quãng
56
Fir
mon
mặn
Í
tị
Vật
Giáp
o
Núi
Ron
Philip
##7),
43
##apur
Att
Bag
Binh
Night
".
6–
Cố
Yam
rob
Columbia
##58
##ắk
cẩn
lùi
1924.
1935.
FA
##emia
Sun
vĩnh
Broth
##ifolium
Macedonia
—
##dam
##din
##ohn
##atin
##emen
##ever
Bát
Trò
1950
gạch
1911.
1920.
##yle
Kn
##endo
Arch
1937.
Normand
##eps
##uct
##ichi
##ech
##lam
##uca
Alf
Ánh
châm
##és
##uta
Brun
##ST
##ée
mel
1989
Bách
Gran
thụy
pseud
##arth
##erto
Ari
1938.
Asplen
##ucc
Ug
##idia
50%
Boy
Bác
Gon
Roy
Chuẩn
Alexander
##SA
##ters
nảy
Chim
Dani
##eus
Hab
Ren
nhấm
Tuyến
tráng
##56
##uv
Andr
Khương
chuyền
##fal
##kan
ap
dạ
Wat
Cass
Harry
Thích
##istr
##mond
lây
rửa
Cand
1.000
Dakota
Division
Pottiaceae
##ser
##wan
600
Mua
##Liên
Occ
Chất
Kiểm
by
##enth
##ioch
sét
##inger
quên
##ipennis
##lie
##otis
##edo
##itis
(17
vân
##Comté
khói
muộn
##tz
##ön
##aca
Big
Bre
McC
##õm
##aba
##tach
Java
Lĩnh
nhậm
vạch
Julius
##DC
13.
Gil
Gor
bùn
neo
quỷ
1000
1903.
1950.
1997,
##41
##7%
##sự
##occ
mũ
##cell
Hạt
Sic
Greg
bách
chua
giặc
Panama
Nouvelle
AT
Ty
##omon
Not
Rog
1975
1942,
##2%
##nes
(16
19.
Moz
1964.
Bourgogne
Giê
der
Diệm
Giữa
cười
1928.
1931.
chánh
##ör
##idi
##oen
(9
Abd
Chợ
vượng
##43
##.""
lụt
pin
Iowa
spec
##ớc
##aid
##ete
li
##erry
Liệt
##iew
##ario
log
rải
##achus
Hãng
##agascar
##BT
##yme
Hor
Mun
kép
Đền
đày
##Những
Szcz
##han
##idge
##ione
##olep
##osum
15,
Pop
Yang
nhọn
1974.
Lanka
##ika
51
Son
Tới
sút
đấy
##assan
1925.
•
Mô
##azon
Henri
##]],
##vel
Lâu
táo
Mot
Stan
vắng
Times
Key
lứa
sôi
##untze
1945.
Phụng
##tháng
##thường
1943,
nhiễu
Ti
##ardo
Jos
tôm
tấu
đệm
Sten
Walter
##82
##INE
##bar
##teg
##ites
Ráy
ngạc
trội
1914.
1923.
1977.
Brown
##với
##ivia
MiG
Moh
bát
Amar
##tor
##ques
Nak
1915.
nhũng
Tho
Jung
thuỷ
##fl
##als
##hev
Đề
##ason
##ianum
xoáy
1897.
Khổng
Premier
DNA
vôi
##raph
heo
1988
1933.
##eti
##form
Ash
say
1967.
Kenya
Loire
Kansas
##"..
##–19
##ithi
Bus
Tal
mắn
1939.
Hauts
##rin
##omar
##ouri
Cáp
Khả
ngô
1899.
69
##olia
Sản
lặng
thâm
đụng
Holly
Ký
##emon
giãn
1991,
##ươu
Sir
gãy
nát
Voiv
##phidae
1896.
Crypt
##Araceae
Occitan
##aem
xít
khuy
Jacob
cưỡng
##bo
Trụ
Tetr
1996,
series
##/1
##AC
##esk
Tip
tắm
Pháo
Tích
bổng
Costa
##LB
Ş
##rus
lấn
miếng
Taylor
##AF
##Wh
##Nam
66
Lá
Ung
bit
tuệ
Corn
Khối
Land
1902.
Szczec
##52
##oud
##par
##Müll
##adel
##elin
##elis
Nhi
thổi
Đổng
##ulatus
1907.
1950,
khánh
##anensis
Algérie
##ić
Ái
Lit
USS
hãy
1904.
phụng
thiền
53
##ital
##endron
Araneidae
##ju
##ẻo
##lia
##ymn
Vận
Fern
hoạn
ngòi
1965.
Psych
##phus
##ingham
##ingrad
##ophylla
bệ
lộn
1932.
Brand
Camer
##CM
rễ
##agan
Ach
Gall
xoắn
##achsen
1962.
inter
thùng
(6
77
lữ
##arct
Ran
lat
##osper
Harv
Thức
chẩn
##zo
##ret
##ostr
176
mộc
rùa
##anian
León
cuộn
1898.
Aleyr
Kháng
##iverpool
##-17
##emb
),
##rium
Ker
enz
Maur
Vlad
YouT
Rhein
electron
##54
##box
Ki
Uỷ
##ymph
cắn
gũi
lùn
Chăm
Pass
##En
##cher
##phia
dệt
Mess
hạch
1940,
1994,
khiêu
khoang
##81
Phố
Tầm
bám
cốc
1941,
##odeship
##har
##row
Kor
Quế
ins
##icolor
Voivodeship
ro
Đồ
Bob
Dal
khe
ghét
1927.
August
Kuntze
##cia
đu
cơm
##icago
Kiểu
Heter
nướng
Andren
Johnson
##–1
16.
Eup
Pil
hàn
khử
man
brev
##onne
800
Chế
ser
1940
1953.
1971.
Hộ
160
nén
Uganda
Pomerania
##zon
Cư
rẻ
rìa
ngột
##iensis
##8),
##ike
##phr
te
Lau
Màu
Rắn
vươn
Nguồn
##icollis
PC
##aica
Dam
Dia
How
Lại
Pod
VII
Hier
##84
##cl
##Cal
##tel
##ual
17.
Nơi
quật
1958.
Canth
##wo
Ic
fl
##rion
##thời
Sas
Tanz
Uyên
1992,
Doanh
Andrenidae
thự
##onsin
Euro
Spar
Giáng
Rhynch
##rô
Euc
Ước
Marc
1955.
##arl
##arn
##eme
##oro
##illo
##vent
Khí
hái
sim
vội
##ardia
1946
Leje
trộm
Stand
Bromel
##uh
kề
tơ
##heim
São
Orth
Sùng
thắt
Island
Schltr
##isconsin
##TS
Gö
Ra
##osia
130
GDP
Win
##sburg
Nint
##zi
YouTube
##ido
Up
140
Rud
dec
nắng
tụng
1917.
Cứ
Độc
Năng
Wisconsin
##so
##rah
##ule
Dụ
Trì
Khan
Cường
piano
Liverpool
##EC
##5),
mi
mồ
##akia
Ark
Lớn
##ellus
tour
Tanzania
Christian
##IV
##dy
HMS
Leg
##ianth
Show
1894.
##ocarpus
Bi
Mở
##rost
Sóc
tre
##shire
khóc
1995,
khoan
Vĩ
##apan
##enos
Bai
Nag
##right
Kenn
pall
1954,
Therid
##là
İ
Da
##verg
bưu
Phao
Xích
spin
Napol
Arthur
##cho
CN
##Nhật
##kins
Bàn
hụt
1966.
10.000
##AP
##erc
##yte
##ômét
Rick
Shim
tiếc
##ges
BBC
Lep
Rub
ván
Scott
##ambridge
Bromeliaceae
##8%
##aet
##lov
##zer
SS
Ôn
##ethyl
1987
Mach
kiệm
##oridae
Centr
##Franche
Nintendo
##TA
##esi
##rix
##roch
cáp
##arius
from
ngục
tiễn
##ularis
1946,
Awards
##ega
##mir
##tah
Au
Dơi
Hav
ind
Hoạt
giấc
trùm
lường
Occitanie
##!"
Ứ
au
##atsu
##ourt
Day
Sax
Tang
##Hoa
Chó
Côn
Sor
gốm
##ordan
hiếu
##icornis
##elen
Act
Bao
Law
Sáu
đắm
show
Young
##83
##raw
##uda
Đo
##acea
Kav
Nad
mar
vòm
##acill
nhường
##số
76
##long
bìa
##Aquitaine
Hypnaceae
##57
##orh
##ots
Yok
hận
Media
khoán
Michigan
TH
14.
Mẫn
sil
##obium
nhẫn
##inensis
Napoléon
É
dại
Cape
Doug
Freder
Harris
Ludwig
Croatia
Normandie
Madagascar
##öy
Bắt
Rai
1930
Khâm
Prad
Stre
1878.
1943.
##SS
WW
tể
Marsh
Pomeranian
##/10
18.
Meloidae
##rib
yể
##etes
##ocal
Jae
Pel
Sid
lắm
quà
##aridae
1901.
Arist
##Mo
##ụa
##col
##min
##omo
##olus
tựu
Khởi
##/3
##4%
##eva
##rip
72
ớt
110
Phu
XIX
rap
1986
Cánh
kilômét
##Un
##ms
##ru
Fe
tú
Đã
(10
250
##iatus
Khẩu
Leuc
Miền
Grammy
thiêng
##DA
Ka
Fox
cap
##attle
##ithec
Anne
Biểu
chòm
Count
Phượng
##ss
##roid
##work
Ard
Hon
Ivan
cưỡi
##estine
Carolina
63
##feld
##ures
170
Tám
sắm
hiếp
Catal
Chris
Spring
##LV
##Or
##cht
62
Cậu
Sev
miện
Nepal
##ival
Cốc
Dur
cắp
nốt
##ister
Anna
Petr
Rose
1993,
Nhiệt
buồng
phiêu
Championship
##eman
##imir
##otes
MTV
Liễu
vách
1969.
luồng
Szczecin
##:"
##Don
##/199
Had
Rey
Ball
Trực
IP
Cle
Nhị
Tun
José
Kiệt
Missouri
##El
##able
Bích
Lạng
Merc
Tiệp
Xuất
giày
1947.
Arsen
Melan
##kt
##ift
##ento
Raj
ant
trọn
1926.
1944.
Clark
##New
cọ
lí
##etia
##ushi
1,5
Miến
Sund
khát
Tạ
fan
Đàm
##ecker
##ridae
1979
Born
Khác
Merr
##oceridae
##71
cua
1989,
2020,
##ophagus
×
##Thể
##nik
Ji
mến
Diệu
nhiêu
##BA
##jin
##orp
EP
Nà
Cận
Beat
Ober
##edy
##ugh
Pa
##ault
##esch
##ince
##lant
15.
Lag
sem
đắt
##press
##tonia
Hong
Ghana
Phyll
##osaurus
khuynh
##eno
Ric
gối
##ultan
East
Boston
##53
##wart
Cir
cắm
dâu
##ittle
Nord
play
Games
##usta
Lie
Web
Cuốn
Hiển
Kong
##iculata
chuộng
Colletidae
##CS
##ahl
##kur
xà
##idus
hit
##lines
Chik
Ngôn
kiềm
##ations
1954.
Hollywood
",
06
Alt
Gom
ham
##lorua
Hind
Queens
Pradesh
Williams
##73
##Ste
bể
##inop
Rav
rủi
1976
Cten
Juan
Thêm
1889.
##omatidae
##bi
##lar
##otr
##ław
79
Way
##inawa
1942
1961.
Trans
##”,
##obe
##val
sẫm
was
Ứng
Hằng
Lomb
mộng
quạt
Chann
Riêng
Thung
##odendron
##eim
Guy
col
1920
Giác
1959.
Ngược
Puerto
##emy
##imp
##oul
##tes
Dj
##rain
Dựa
##ystem
Mang
nghiệt
Samsung
##QĐ
##du
##omi
##alem
##asha
##avia
##etts
##falz
##pany
##skie
Prod
Haute
##aza
##ree
Ib
##azar
Boh
Arec
Ngạn
Ngựa
đính
Aleks
Nghiệp
Palestine
#
##ras
##ska
61
Ig
Vây
##amine
##ammad
1981
Gard
Russ
Turk
1921.
Amazon
Arsenal
##800
##èze
Om
##arag
##eral
Dầu
lấp
Jane
Gioan
thính
##IS
##–0
##imal
Fle
Sec
Tre
Vai
tẩy
ngài
rụng
1951.
1957.
natri
Kazakh
##iti
##vis
Hun
##ition
Guad
lùng
1952.
Barcel
Jordan
Pierre
Lejeune
##nus
##rez
CLB
Kos
Oct
Luer
1956.
Marie
##ER
HD
Ye
##eing
Lew
bầy
##iopia
1943
Beng
Liêm
Miên
1859.
Chiêm
Tượng
Cyathe
##CO
##2).
##mét
LG
##avan
Hứa
Bóng
White
Xưởng
nghiện
Okinawa
##/4
##300
##alp
##ctr
##oub
##cast
God
Inc
##eller
1985
High
Thúc
buýt
Trắng
cuống
trướng
bóc
bắp
1944
hươu
sủng
Dendr
Airlines
Lejeuneaceae
##',
##74
##].
##net
CP
Mồ
TN
Vu
##"...
Tuân
sing
Dubai
Phaolô
Tipula
##Các
##bus
##giờ
##obi
##cũng
##irus
Beg
Bái
Bán
Pen
Wes
vit
Jeff
Open
Thác
Domin
Group
##ATO
##ved
##dong
Gặm
Đắk
Cham
Diện
nhốt
Andrew
Wilson
Belarus
##ég
##ễu
99
lê
##bourg
##odium
##chủ
##ody
##rag
##wer
02
Kỵ
MV
##itus
Hòn
Lão
Wolf
thói
Daniel
Slovakia
##GC
##hr
##lis
Cửa
Maj
bộc
lụa
Band
##iformis
##LA
##asi
##orf
89
XII
ngơi
Triết
Chicago
##my
##iae
Bờ
chì
Live
phơi
##opogon
Liban
College
Barcelona
##xy
##rol
85
##emis
##iper
##ouch
Dec
Tạp
chúc
Arecaceae
##600
##ely
##iko
##ský
##zur
##bury
mập
lánh
Monte
radio
##ulaceae
##rav
Ble
Sah
Tết
Pers
solo
##anthes
Thuần
Boeing
##öl
88
##ocer
##orro
##uchi
Syn
cod
mod
Prov
cành
1882.
1890.
##ken
##zan
AD
By
##rier
700
tồi
##raion
1984
Gray
1965,
Sudan
Trump
##6),
##iva
Ha
##ated
##opis
1.0
Ing
Lãng
Onth
mãnh
##agalus
1885.
1948.
1988,
Robin
opera
Schles
Ethiopia
National
##MP
##aco
##kaz
##ibia
Mọi
gác
nếp
rắc
##natha
Mikh
Myrm
Thạc
2.000
Khách
##ariaceae
Mordellidae
kem
pul
News
hiền
leuc
1979,
Brook
Euphor
##_1
Vài
##Rhône
1973
Lycosidae
Astragalus
Pteridaceae
##/12
##enh
AR
Lộ
##amus
##igma
Rev
Tem
bin
##evich
Cact
Chap
Hart
trưa
đành
1918.
Hassan
##ukh
##iner
##nath
mệt
Ross
Trác
VIII
##De
##400
##Một
##edd
##oper
##unic
##osoma
Bour
Bàng
Rang
American
Bryaceae
##6%
##icon
##raft
Cur
dập
hãn
mỏi
Berg
Trin
##achusetts
Arkansas
dĩ
##agin
##ries
Bức
Dig
Lời
Var
lặn
yểm
1869.
Nikol
Thomis
##Mu
##Su
##aly
##yna
##amon
Pep
Đàn
1982
Thor
gánh
##vergne
1893.
Jamaica
##-12
Xê
Yu
##ando
Fel
Muh
cấy
##owski
1954
Vinc
1976,
Bruch
##opteris
Myanmar
Auvergne
##yon
AS
Sn
rh
##iens
bếp
Rica
Sport
Baltic
##61
##ape
##oka
bo
##-199
Pad
lộc
sấu
##thành
##yeong
chùm
Jones
Thuốc
##Gr
Út
Ern
bái
lội
##ilton
2020
Gymn
láng
1875.
Chlor
sương
Bolivia
##Re
##irt
Nô
đê
Cel
Síp
##tương
NATO
Trúc
Boiss
khuất
Champion
Dicranaceae
##ulu
0.
ol
(15
Och
##Tiếng
mont
1968,
Onthophagus
##PS
##cal
##urd
(8
sọ
##achi
##icta
Chữ
Kab
Prot
Caribe
##Cô
##ởm
##-15
##All
##mel
##rew
67
21,
Lig
Sát
Tol
##regon
##obiidae
Candèze
Iceland
Massachusetts
##rif
95
Gà
Mĩ
út
##rest
Yak
Nhìn
Tịnh
thạc
xông
##tambon
1930,
‘
##arb
Ot
ao
##folk
##odia
##opol
##thes
Dền
Fac
Hum
ful
##iscus
Doãn
Pres
grand
##IT
##-18
##edes
##ambia
1978
chéo
1753.
1949.
Copel
Android
Theridiidae
##63
##ves
Dư
en
##arin
Kry
neu
set
##phaer
xinh
##itidae
1919.
1946.
Nhiệm
hydro
carbon
##Ne
##yu
##ük
##ẹo
##arat
##atem
Hắc
Pok
Rất
##owell
Canh
Moon
Witt
1879.
1939,
Tortr
Romania
##đã
##the
04
##King
##mont
##osph
##unea
Pin
nha
Blue
Fair
1949,
Model
Tuyết
##rac
##John
are
Rico
nhục
sùng
Ching
Chiết
Albania
Norfolk
Cactaceae
##Co
##mat
##oca
##yne
lãi
##ersey
Cycl
Hoan
Lũng
Marx
Mold
truất
Carlos
Oregon
Marshall
##/5
##apt
##chỉ
##erl
##pop
##urch
Bão
Hom
Off
sal
Hans
Trip
chọc
trơn
##Station
##'.
##],
##abe
Oz
Dys
Xây
nov
vảy
Comp
Ngãi
Wang
100.000
Company
##vi
##awi
UB
##ieri
##site
##vers
râu
đam
Kênh
Wild
Yosh
bính
1886.
1972,
Color
Hydropsych
##Ac
68
##ific
##omen
##ress
Dai
Hyd
Lac
bơm
đèo
1983
Dược
Frederick
##xã
##ute
cớ
##omus
Cựu
Elm
Lớp
Vat
báu
##thuộc
Douglas
Thomisidae
##bu
##uyễn
Deb
Der
Rid
XIV
conc
trán
1877.
##Be
##cu
##aze
##ulin
Lip
Vis
WWE
arg
tur
xôi
1968
Hang
đinh
Semat
Billboard
##FO
##esp
##rap
##var
##đặc
##midt
##uzia
23,
Lis
##ebook
Sung
Thúy
1967,
melan
thiêu
Socorro
##/2
##)..
05
##issa
##omme
##phan
Lar
Mys
##Không
##ierra
##ydney
Brad
hước
##alidae
##enidae
Carex
Dream
Trùng
##EA
##chb
10%
22,
Ali
Jer
bẫy
Viet
Paulo
thủng
##uez
me
##anag
##émon
Micr
Roll
Allen
Chart
##ingidae
##700
##epp
##tha
##Ngày
##elly
##ural
Oph
Tae
tóm
1941
Burg
Conn
Fest
##rik
Liv
Log
Rau
Đêm
##inton
Amph
rãnh
Royal
giường
Antonio
Francis
species
##//
##asu
##olm
Xe
##leur
Yến
giế
inc
rực
##ophia
Hond
Thôi
1880.
British
Queensland
PlayStation
##ốp
##cha
hò
Mim
##ector
##huyện
Chức
1987,
khoai
Rheinland
##ül
##ahn
##san
##tro
bì
nu
Nem
Vit
Vấn
nồi
##ingen
1939
cons
Linux
Bengal
School
##kok
##uti
##xít
he
Cab
trễ
##other
1965
Đoạn
1876.
Herbert
##Tây
80%
Mit
bận
uốn
##Pfalz
##ialis
Caes
Fort
nhai
Gabri
hoành
Norman
##poration
Amaryll
Palomar
##của
Đá
##cens
##uter
Kad
rậm
1977
Chấn
Time
##ection
1969,
Gruzia
Georgia
##IN
##uga
Nu
Py
##Hook
##anni
##omet
hao
roi
tro
##Aster
Băng
rung
##ophorus
Johannes
##09
##abi
##eki
##ize
03
But
nắp
rec
đếm
Thảo
đằng
##ladesh
1973,
1985,
quyến
##ci
##él
##://
##chin
Cav
Chú
Rem
toà
1972
Engl
Goth
Nick
Sony
nhắn
đoan
1874.
Perry
codice
##erusalem
Indiana
Euphorbia
Cantharidae
##51
##sm
##zy
##Val
##apa
MP
70%
Aur
Rep
##ocera
Belg
Ptol
Slav
quad
rỗng
enzyme
Amaryllidaceae
##/9
##ún
##yss
##ềng
uỷ
##ally
##iago
##iter
##nham
##olin
Ahm
pho
##icata
##otria
Mitt
Ngài
Toán
nhôm
thầu
Davis
canxi
giềng
##td
##></
CE
##idel
dai
##worth
Khuê
thấu
viền
Trưng
khoác
##atherine
##ăk
71
##warz
1971
Hann
##anidae
Bangladesh
Kazakhstan
##PT
##owo
81
mị
##aldo
##ardi
##wick
Arn
Vik
lót
nai
##onica
##yzant
ball
chèo
ngắm
1956,
Chẳng
Giêsu
quặng
Bulbophyllum
##Ad
:
##for
##ype
mg
##anal
##wang
Dod
dối
kẹt
ngu
Fiss
Otto
Phản
Pict
Tuổi
điên
1986,
Lewis
Tràng
Alaska
cỗ
##onna
Bis
sen
thề
đục
Good
Niên
nung
##iation
Giuse
luyến
nguyệt
Sicilia
##OC
##Bul
##iad
##ikh
74
Hỗ
##utan
90%
Dần
Hạo
##Trong
1892.
Tumkur
Leptoceridae
##hn
##xt
!
lb
tạ
wh
##etus
##utin
Vel
tặc
##elles
Hand
Rome
Than
town
1948,
Great
Sound
Sydney
##Arg
##len
##oac
##olt
Gò
24,
Bank
tạng
##arctic
1873.
Margar
##alo
Uz
##omia
Lil
cay
lát
lựu
Nhận
Trại
grac
Đằng
1881.
1955,
Roman
Grande
Jersey
chuồng
Franklin
##HO
mổ
##inch
Hid
Pur
##Chúng
Abra
Mike
Nhan
Pach
1838.
Duyên
giếng
Vladimir
##SP
##asy
##elo
IN
##bour
##công
##ener
##idad
##ject
##ones
25,
Dao
mag
nón
sốc
tạc
##ovsky
Bart
Ever
1888.
Radio
Gracill
Schleswig
Alexandria
Corporation
##?"
##ов
##ASA
##ieg
##iễm
##igon
##rick
2,5
Ast
Lav
Trẻ
vần
Conc
sulf
1981,
Libya
khống
Gracillariidae
07
Je
rỡ
ti
##thia
0,0
Hok
Pon
all
##oleon
Shah
chán
khéo
1836.
Stone
Myrmele
Solomon
Jerusalem
##Em
##ogn
##olc
##uya
##ioni
##pson
159
Hed
trù
##alore
Gaga
Jess
Salv
Litva
single
##ebr
##gồm
##pis
73
MC
kí
##roth
##stit
##wald
Riv
##ulosa
1956
gran
hoài
phím
xăng
##adelphia
##ès
##tạm
##uku
78
AC
Iv
##enko
##plex
Cấu
Sad
gán
##encia
Sher
mult
ngặt
publ
1854.
1982,
Lepid
##ophilus
German
khuếch
##yi
##-21
##hai
##Thái
##rons
Bac
Gyr
ngõ
nôn
vớt
##ology
##uguay
1846.
1974,
3.000
khiếu
##ouk
##rau
Jr
##arum
Bột
Nậm
dọn
dừa
ghé
##Hoàng
Chen
tenu
1984,
Charl
Tamil
trans
angust
kị
##Gray
##Phil
##eský
##kham
152
Kep
Tọa
cồn
fil
khoẻ
1971,
Nicol
nhàng
##atemala
##Asteraceae
##bes
09
lề
##Danh
##dorf
1955
Liga
XIII
khiết
##ontidae
Nghiêm
Gregory
##obr
##phy
##yce
##mund
Kas
Nan
gam
gìn
rệt
##Loire
##amoto
##nghĩa
Vũng
1963,
1978,
crass
khinh
##pi
##19,
##mit
##tin
##yac
(1.
Has
Say
1964
1974
Mans
1857.
1860.
1887.
Chuột
##iformes
Torino
Aspleniaceae
##DS
##oko
##tuần
Lân
Bành
Lành
Nied
Guatemala
Psychotria
##ty
##:00
##aig
##ubb
##Hung
Tab
aur
cur
##iella
Hamp
Laur
Road
họng
ngạn
1962,
quyên
thoải
University
##At
##IM
##/20
##pos
##tea
##uru
##xin
Áp
##asis
##incl
21.
sam
sâm
Dipl
Lệnh
##issima
Byzant
Bangkok
Channel
##arr
##cul
##ery
##esa
##ieu
##nhà
ni
##Công
##alan
##ippi
Urb
rèn
Lasi
Zimb
niêm
đống
1863.
Alfred
##ocephalus
##ũa
##ụn
##ids
##ấng
IU
se
##ioth
Ful
und
##ocaul
Matt
Trạm
thấm
Assoc
Uruguay
##Ngh
##ako
##igl
##mia
EU
##...)
##Will
##abwe
##enes
##ious
Kai
măng
Pedro
thiếp
Acanth
Chuyến
##ED
##Hà
##aff
##rum
Sy
##erst
##fraz
##rect
Aqu
Mới
Siv
son
##Moore
##round
1949
1849.
Carth
Chang
##rionidae
Schmidt
##enk
##oke
##uil
##xit
08
Fi
(0,
30,
Bạt
Jay
ráp
##elson
Diêm
Pont
UBND
parv
1959,
1964,
5.000
River
Sharp
Water
Kavkaz
Schwarz
Slovenia
##inos
##iona
Spe
huỷ
##ution
Best
Oliv
1920,
tràng
Philadelphia
##PC
##pus
##won
##Île
ag
##alum
Bog
Duệ
Kaw
Kom
##opoda
1948
1959
amin
chai
ngâm
quấy
1866.
Chamb
Crass
Kolar
Malta
Sierra
Stephen
##Pl
##eca
##evo
##sol
96
rỉ
##alle
gắt
1963
Kích
LGBT
Xung
comm
kali
nang
1966,
Lưỡng
huỳnh
Ferdin
Conidae
##uf
##vì
##]].
mẻ
Ít
##burn
105
Gol
Mèo
Ngự
Tag
dẻo
1967
xuôi
Đoan
Maroc
Thiểm
chiết
Sachsen
Studios
##gs
##/11
##1).
##apl
##bek
IX
Um
re
Kha
Tốc
reg
##idens
Buổi
Bính
Ford
Gord
Lake
Linn
Nich
Plag
line
Alice
punct
##ithecia
tambon
Bangalore
##Bulbophyllum
##Hz
##-16
##bul
##igo
##isi
##uld
##ées
(7
##aron
##emat
##etti
##fort
Aeg
Nền
Pom
Rồi
Sus
Yêu
bồn
dịu
nứt
Bret
Jong
name
thục
1867.
1977,
Brian
khiếp
Manila
Aleksandr
rể
(20
Old
##ental
##český
1969
Hein
1947,
Somme
Zimbabwe
xi
ốm
##reen
##uban
Hoá
Mün
Hạnh
Scop
giun
##amidae
Khiêm
Swift
giang
##alensis
##olstein
Beatles
##pp
87
Gü
Og
Sứ
##ader
##trên
##viết
169
1962
Cord
chay
ngụy
1958,
Feder
Matth
chuối
Mikhail
Cameroon
Facebook
##/6
##adt
86
Cờ
Ri
sỹ
##wich
26,
Asc
Bey
##rence
1958
Bush
Fall
Kiev
Pand
Rain
Thao
Your
thưa
Hoành
Seine
laser
##BM
##IP
##NĐ
##gio
82
##aban
(14
Eul
Utt
mõm
Diêu
Kent
Life
Thậm
Xbox
rong
1851.
Papua
##RO
##aug
##opt
##vens
128
Miy
Rac
dồn
gay
khoá
Girls
chênh
Oxford
System
Estonia
Ö
##dal
##led
##mum
##oza
AK
UK
##ados
##ants
##rise
Bia
Joe
Sắc
Wik
Post
1864.
Maxim
huynh
##ambique
County
Constantinop
##US
##VN
it
##cùng
##ecta
##illy
##opes
Pir
cõi
gậy
Île
Buck
Lady
Mend
khốc
Light
America
Tunisia
Eupithecia
##As
##rio
##aran
20%
Jud
Mob
Oxy
Pit
mép
##achel
##aemon
Lamp
##jeunea
Galax
##Mỹ
##bb
##-11
##etz
##ipe
92
SM
##anlı
##ovic
125
Tod
nọc
Broad
nhuộm
Standl
Walker
Harvard
á
##mes
Oh
âu
##omys
(12
Ery
Lad
Ngu
Tắc
##andal
Alan
Mant
tiệm
Địch
1951,
1952,
Apoll
Roger
##ychidae
Caesar
Ptolem
##cy
##azi
Mỏ
Pé
gả
##back
##obry
Cuc
đao
Calc
Cyrt
Disc
Koch
Mars
Whit
Leyte
##enstein
20.000
##Holstein
##mas
##tỉnh
165
Fun
Jim
Khal
Shaw
Villa
Borneo
Myanma
website
Myrmeleontidae
##oco
Ny
##Pháp
##enza
Res
Sub
Veg
1961
Rand
Rừng
1957,
Osaka
Kepler
Babylon
vitamin
Christoph
##onc
##ươm
84
bế
##aios
##amba
##olas
##onis
##çois
Gai
Kag
Seb
Sức
Yuk
bén
cửu
gộp
##athan
##ering
##yland
Yemen
Ferdinand
Alexandros
Hydropsychidae
##.<
##ES
##tô
##ogo
##sko
83
Aj
xả
##essa
Nằm
aus
1953
Eric
Jenn
Xanh
Đỉnh
nhược
##instein
Chrysopidae
##He
##Star
##emer
##ogna
##ypha
Cán
Lom
##Thiên
Horn
Vers
oxit
trắc
1953,
Princ
Steve
##issippi
Mozambique
##/7
##-1.
##Tam
##ecio
##phát
##Đông
900
Rab
UFO
Đắc
đẫm
##Muell
Coen
Tung
túng
Santiago
##/8
##Bắc
##ulc
SA
##)...
##opot
##unda
##utus
Seg
Sky
ray
ướp
##ythec
Ferr
Fred
Giản
Kang
Thật
ngủi
Cuồng
Heart
Sultan
Muhammad
Ố
##9),
##edi
##fin
##mag
##nom
##etto
##imac
##oste
##ried
"".
Blu
His
Ten
##endrum
##eridion
##ionidae
##osperma
Tetrag
Thuyền
##Nhà
##ycn
##eckl
##tram
##wait
27,
HIV
Mez
##ephal
Dinh
##League
1865.
1883.
Aires
Octav
Jaeger
Sphaer
Network
##95
##Bo
93
##ispa
##orph
##ulum
Bit
mal
meg
pil
thê
##obius
Chan
Dong
Hard
lượn
Luxem
chặng
Catherine
##93
2"
Sv
oc
Đi
##ents
360
ATP
Lôi
Nin
##oloch
Anim
Slam
đuối
1861.
1884.
Rhyac
Scinc
Angola
Victor
Anderson
Sphingidae
##irk
##mus
Bò
bồ
xơ
Bow
Dae
Hào
Lec
pyr
##ercus
##iceps
Biệt
Plan
1845.
1850.
House
Center
Sumatra
##Lu
##şe
##Har
##Par
##akk
##pat
##ymb
rũ
##esus
##omin
##ways
hum
1947
1966
Cosm
Dạng
Guam
Kamp
Khái
Mall
thùy
phiệt
Kennedy
Stephani
Brachythec
##hy
##Car
##ips
Mê
hở
##ayat
##emma
##enne
##etis
##ylus
Kle
Kum
đùa
Biện
Down
phác
##abilis
1853.
1858.
Lenin
##asciata
Galaxy
Elmidae
Cambridge
##_2
##sin
97
##hiện
##iant
164
Dục
Nev
Phê
vằn
##Chiến
##odrom
100,
Bung
1844.
1961,
Chern
Lucas
Xanth
nghênh
Colorado
Muricidae
Scincidae
Lasioglossum
Rhynchitidae
##aec
##kar
DJ
Dun
XVI
gân
khố
Buch
Khúc
Pied
euro
1868.
robot
Donald
Tortricidae
##gy
##hl
##erd
##pin
UN
Mul
lậu
mịn
Thai
khép
that
##ardosa
Tuyền
Buenos
Church
Pokémon
neutron
##We
##cô
##uj
##uan
##eira
##ians
##ourn
##ston
##zona
Hựu
Kop
Tồn
lạp
đan
##aijan
Boul
Carr
Glob
Krym
Serv
1841.
1871.
1918,
Endom
khanh
Milano
Somalia
Bruchidae
Dryopteris
Mississippi
##94
##-23
##eom
##iba
Tố
af
es
ov
##iềng
##mark
##ossa
##tera
##ylla
Tas
end
##aguay
##araon
Gang
Hous
Vern
marg
1856.
ngươi
##anthera
Brunei
Street
Byzantine
##óp
##ửu
##gor
##raf
##evin
##ınar
Cob
Pul
vụn
##entin
đọng
Azerb
logic
Truyện
##mo
##bin
##ehr
98
Dữ
má
##furt
40%
Mec
Sed
côi
nàn
pur
##acium
##şehir
Lith
Team
manh
##ifolius
Lombardia
##LC
##khi
##owe
Dh
MS
OS
##obar
##ware
Cân
Fin
Leo
Mem
NGC
##utsch
Dark
mini
chiên
##Per
##eij
##ugo
##uni
##ève
(?
sê
##ager
##auss
##urai
Bri
Jin
Mam
Rap
Zam
dồi
htt
lăn
pal
##ausen
##ogram
3000
Herm
Mosc
fusc
##bourne
##uensis
Queen
##yphantes
Namibia
Lawrence
internet
##DI
##Nữ
##–2
PS
ir
rổ
ÂL
##urga
##ylum
Bầu
Cấm
Hos
Mae
đũa
đạc
Gust
Lenn
Magn
NASA
Rhod
Tony
rước
Đàng
Angel
Sankt
Peters
##otrichaceae
##ET
##RA
##ns
153
166
Hat
Sup
hir
nhã
##illes
Kiếm
Tect
1830.
Japan
Ngành
phiền
##estidae
France
Little
Medved
Azerbaijan
##ẻm
Š
##ben
##rot
Hyl
Maz
Taj
gặt
vòi
đớn
##ygium
Bund
Fuji
chớp
Bruce
Kunth
Power
Qatar
##alcanal
##Ag
##Me
##For
##aed
##hin
##imi
Kü
VN
##auer
##quin
đởm
##Phone
Vọng
blog
vuốt
##olepis
Franz
ngạnh
##alaceae
Carthage
Margaret
Pictures
Endomychidae
##91
##Is
##OH
##enta
##onto
155
Bec
Kap
##ience
1918
Nhâm
##ommern
1983,
Justin
Thuyết
Aleyrodidae
"“
94
##Pres
##eneg
##ondo
##ript
"",
28,
Kak
gặm
sum
yết
##anger
1957
Kash
Roch
Shak
Kyoto
Centre
Warsaw
##iol
Bé
sm
Bil
CIA
Lợn
sụt
tệp
var
Sele
bành
##abidae
##enaria
##ermann
##uridae
Chuyên
Newton
##MC
##ML
##eor
##esl
##imo
##pir
##yra
).
Xứ
##eley
##eres
101
Aer
Kot
Rum
but
sin
Đột
##apura
1938
Dick
Súng
diễu
nhan
##ifrons
Baden
Banks
Beach
Tranh
Begonia
Ptolemaios
##DE
##DF
##gl
##enb
##eur
##oki
##qua
Iz
Us
ôm
##osev
##rant
##rypt
(1,
109
350
Bấy
Lum
Sib
Thụ
##Clark
##Marit
##angay
Coel
Thới
kiều
thầm
1840.
austr
Vatican
##anthaceae
Bretagne
Anthicidae
##4).
##And
##CND
##ici
##mặc
##ypt
Lô
##anti
##ular
Dực
Mân
Out
Squ
cẩu
hệt
nhô
ret
rét
1952
Bướm
Form
Levi
Lord
María
panch
30.000
Andrena
Guadalcanal
##ár
##uat
##ửng
##ipal
AFC
Bãi
Kay
cat
tâu
ôxy
##icana
##iller
Cher
Fire
Orch
##olejeunea
Medvedev
##CT
##eon
Kẻ
##akov
##arga
##eshi
Byr
Gam
Gro
Ted
lồi
Book
Pros
nitơ
phôi
tưới
Phoen
##frazioni
Asplenium
##agh
##trừ
bạ
##Love
##aver
##lava
##read
##uras
22.
Abb
nuc
##Thành
Back
Gand
axít
file
micr
##emberg
Adams
Chứng
Polyg
Madonna
Harrison
##ecklenburg
##Ex
##"."
##iec
##oun
##oux
Ek
GS
Xu
xí
đè
##enus
##ihan
##otal
127
60%
Emb
Giờ
Hus
Nom
Pra
Thí
loa
pap
##ender
##ienne
Cort
Just
2020.
Rhône
Zambia
##arc
##eler
##ilum
##omum
Gle
dán
nóc
##umber
Asia
Derm
Dụng
Loph
Main
##odinae
##ianthus
Batman
clorua
iPhone
Hieracium
##9%
##92
##Sự
##7).
ae
##anol
##otep
...
Abu
Cừu
Hil
Mãi
1951
Beth
Adolf
Crist
Maine
chước
ngoặt
##omorpha
Hamilton
##sl
##Col
##IDS
##khu
##not
AN
##obus
174
Gul
Gun
ISO
Mis
Sag
bọt
kẽm
mào
1936
Hell
Mind
Ngạc
Khanh
Sivas
Carter
Antioch
Houston
Cyatheaceae
##PG
##Mac
##ird
##ugi
tà
##ylis
Hop
tem
Ảnh
##abama
##anica
##tario
Cant
Giấy
Mats
chài
rạch
##census
Anthony
Clinton
Gabriel
Paraguay
Salvador
##Li
##My
##3).
##aev
##gie
##hyd
SC
pH
xô
##alov
Alc
Ank
Din
Pun
Raf
Rus
Spr
mài
ros
##nhưng
Cost
Hipp
hông
khôn
##yridae
Khiết
Navás
##osevelt
Miller
Sakura
Aleyrodinae
##Hội
##gin
##thr
##tim
91
##DCND
##abar
##arre
##ffin
156
Ral
Ton
hoạ
##arsus
Cruz
Well
oanh
Obama
chiêm
Đương
Chuyển
##odactylidae
##TP
##UB
##div
gò
##akan
##atti
##toni
##điều
Acc
Sey
Đăk
(190
Dich
Prim
biếm
chảo
hăng
loan
thạo
##bản
##lib
Mk
xé
##aton
##irac
##omac
##phần
##uman
##utch
Bou
Dây
Xyl
Ích
##chính
##ledon
##onder
(198
Gaul
Miếu
##ocentr
1872.
Kings
Rider
chanh
François
##Có
##ipa
##tre
##đơn
##Lind
##jima
##okia
##rica
2.0
Gri
##etter
Epid
##ochrom
Moore
Piper
CHDCND
Europa
Moscow
##agrionidae
Megachile
Luxembourg
##98
##Cr
##Gu
Et
Ow
##awak
##orea
23.
Bạn
Jak
Lob
ann
bẩn
cụt
mol
rem
xảo
Anis
Carp
Khảo
Pick
liễu
muỗi
##ostoma
1824.
Bryan
brach
ngoan
Acacia
Junior
Potter
##phosidae
panchayat
##)".
##anz
ồn
##chim
##erat
##imum
Làm
Miz
Shō
Tốt
##Pseud
##marck
##énées
Kras
khâu
việt
##ipedia
Olymp
General
München
Ontario
Roosevelt
##DD
##Kim
##San
##des
##fan
##uli
Cù
NH
##ermo
##unes
##wall
162
Aud
Bối
Bội
not
Luke
Athens
rapper
Arizona
Bernard
Einstein
##96
##Dr
##Se
##19.
##edt
##rov
ed
##Mitt
##ahan
##isar
167
24.
Sâm
Vin
##ictus
Chil
Jura
nhào
##enness
1848.
Point
Santo
Uzbek
Samuel
Abraham
Dendrobium
##NG
##éd
##5).
##Ind
##ekk
##gọi
##unf
dỗ
##iami
##ible
##ophy
##urfa
##wara
ADN
Sig
Nakh
Pale
Ster
1862.
First
Nhung
Şanlı
proton
Assyria
Konstant
##Từ
##на
##5%.
##iye
##leg
##thế
3-
##Amer
##idis
##ockh
Ill
cày
##Benth
Gừng
Rchb
mùng
Child
Chiếu
Eugen
XVIII
heter
Friese
Howard
Series
##chnaceae
##imbledon
Raymond
Wittmer
Melbourne
Şanlıurfa
##AL
##Te
##vo
##để
##ril
2:
##-197
##Mart
##osis
##tính
Mối
kar
phò
đạm
##igera
1900
Gris
Isab
Kast
Lock
acid
beta
##aragua
Georg
chuộc
Strand
Barbara
Vietnam
##ña
##ст
##’’
##Nếu
##eot
##icz
##met
##upp
##ukov
Cốt
Dim
Fam
Heb
Neg
Ngữ
giã
lau
oán
vóc
##Baker
Khâu
Pitt
Toản
fran
gieo
khan
##raneus
##ringen
Triển
ngạch
Studio
Leningrad
##GP
##NO
##ра
##Chi
##obl
##atia
##ixon
Suz
Tir
len
mắm
nhũ
comp
thềm
Mitch
Theod
##iscidae
Russell
pharaon
##oj
##Can
Kì
Nỗ
##asma
##inth
Bae
Hảo
Isa
Lấy
Pha
bẩm
lận
phả
tăm
vắc
Cống
Line
Pays
rưỡi
sanh
stud
##ampton
##ograph
1.500
Nicaragua
##CC
##Sa
Vợ
dở
##Giải
##alla
##omit
##rans
168
Bưu
Dận
Lod
Mức
Set
##hevik
Shar
Uyển
eleg
nuốt
Creek
Grant
##ogaster
Bhutan
Gyeong
camera
Senecio
bicolor
##mu
##)",
##HCM
##ancy
##arte
##assa
##icin
##soni
##teri
##trop
Eun
Mog
Tob
Wol
chè
căm
##Saint
##ennes
Manh
Thùy
Week
huân
Cross
Kamen
Titan
Luther
Warner
Wimbledon
##GS
##NQ
##SO
##hu
##Cập
##ogr
lở
nạ
##abad
##alur
##bell
##esir
##only
##ylan
2).
29,
Saf
Tát
pen
syn
váy
1937
Bước
Hend
Lamb
buồm
1870.
Uttar
chrys
Johann
Latvia
Naruto
Sasuke
Piedmont
##GM
##Cor
##idd
##ocl
##osm
##quy
##yla
gõ
##alac
##augh
##dale
##esse
##ingo
##inho
108
173
Dre
Fuj
Sap
Tạo
bas
hyp
mau
mor
och
pat
Gent
Malp
Roth
Sard
Attel
Duyệt
Pyotr
Urban
Morgan
##orpommern
Trinidad
##ME
##Âu
##ỉa
##iaz
##zel
##zig
##Ông
1:
Vy
##eran
Arc
Lov
Nay
Tau
Thr
VTV
bón
bóp
dơi
##immel
##lands
Last
horm
sảnh
Đánh
1839.
1936,
Guill
Mario
Pleur
Alabama
Parthia
##OL
##aci
##oom
##xon
3;
AU
Gn
Ấp
“"
##amas
##enst
149
Hou
Kem
Kod
Lon
Mig
Quỳ
Rịa
dem
##nheim
Leop
Nova
nhát
trừu
1833.
1847.
Reich
Woods
pound
Darwin
Valley
Bartram
Napoleon
##On
##ск
##Mon
##Mus
##–18
bú
##odor
##zawa
1.5
Aph
Cyp
Syr
Sái
xói
##ether
Bols
Giov
Kens
Nept
Ryan
Thầy
benz
khao
kiêu
1938,
Carey
Union
##Araneus
Lennon
Product
##RS
##aps
##oar
##ouc
SP
vã
##..."
##etty
##obia
##uber
Fal
Got
Rov
kèn
lén
nan
răm
tủy
đun
Acad
Bánh
Lyon
giọt
obsc
##Clarke
##ellata
Timor
Venice
Scopula
Toronto
Ukraine
Attelabidae
##>"
##wi
##zt
##zı
##elf
##ipl
##riv
Cừ
Ea
##ache
##arpa
##beri
##omal
##oxit
220
Abr
Cảm
Cẩn
Nhã
Syz
bấm
hán
lột
##ought
Hugh
Luis
Scar
Trục
Xing
lept
1843.
Minas
thoáng
Provence
Christopher
Mecklenburg
##3/
##avy
##bol
##icô
##idum
##iers
##inum
##undi
145
App
Aut
Ves
pan
##rates
Calv
Kane
Yuri
dist
plat
1842.
Linds
Sarah
Thera
##opteryx
Croton
##ophoridae
Ō
##80%
##CBS
##iza
##thu
lỡ
##/194
##arit
##itor
##ogue
##orks
##osta
##ulia
51%
Dãy
Mov
hiđ
léo
rộn
##incta
##ophon
100%
Biến
cost
dent
disc
thoi
đừng
##artney
1827.
Techn
##include
Apollo
Vincent
Philopot
##FF
##ww
−
##igi
Eg
Tà
Ud
ep
vờ
##arta
##inck
##quer
##yros
157
3,5
Chư
Exp
Loa
Ngọ
Vil
Ptil
Schw
Tòng
chạp
Balık
Ralph
Aragon
Marcus
ballad
##fu
##Sal
Rw
##Quốc
##awan
28.
Cyn
Gaz
Ghi
Hog
UTC
cưa
cởi
##ellia
##house
##illus
##ophth
Fant
##nguyên
Gross
Miami
Janeiro
Patrick
Eriocaul
Wikipedia
##Hu
##bal
##igu
##iot
##nơi
##osz
##oyd
##urc
##vre
bẻ
##aude
##aven
##berl
##eron
APG
Dàn
Gad
Pac
gởi
hẻm
med
đắn
đặn
##allia
##azine
##stein
Garc
Khôi
##entrop
1935,
Diosc
Thuộc
metal
nguyền
##GB
##RI
##eos
##làm
##oye
Iw
Sơ
rò
##anes
##ensk
##weet
115
52%
Dog
Kah
Ngư
Ori
cọp
hal
kìm
liv
mậu
##achne
##ersch
##teria
(180
Beau
Rạch
bỗng
giục
gluc
đắng
Intel
Jason
Parad
##borough
Jacoby
Juvent
Morris
Airways
Crassulaceae
Philopotamidae
##mà
##-30
##50%
##Năm
##ams
##êng
##aust
##erma
##onso
##otti
##đồng
15%
163
HLV
Toà
Vor
Wer
Zen
occ
phà
##attan
##đường
Herz
Kris
acet
lừng
Aspid
Found
pulch
##sterdam
Panzer
##ennessee
Twitter
##97
##Bộ
##ahu
2-
AM
##Cuộc
##aise
##witz
172
450
Coa
Mũi
Nổi
Tái
Vic
mil
sáo
thệ
tỉa
Chưa
Four
Know
camp
phồn
(1998
Chinh
Marse
Story
Manuel
Plagioch
Coenagrionidae
##cc
Ł
##-29
##30%
##Che
##Mah
##ede
##ikk
##oia
##ryp
##wal
##www
my
##abin
##hiro
##rann
##ukos
122
Ngà
Nhì
dạo
gục
##cheon
Bass
Vang
##amburg
##tachys
4.000
Himal
Marvel
##Ol
##40%
##oly
"[
00
##alyp
##ares
##arra
##arya
##chan
##ebec
##ocol
102
Kin
Kyr
Laz
mía
rot
Đồn
##0,000
##oland
Stal
Trai
lanh
##ground
1919,
1937,
Yoshi
Munich
Heinrich
##.”
##AD
##BI
##SL
##00%
##20%
##Man
##Tập
##aso
##ilo
##lez
##low
##tem
##iety
##ttum
151
ASE
Anc
Sea
Xen
cẩm
dấy
góa
mác
oan
que
100.
1933
Film
Fish
Jang
Nhái
Thâm
Thịt
(2010
1837.
Boris
Lindl
Phêrô
khiêm
nghiền
Charlie
Matthew
Stewart
##Theridion
##odactylus
Festival
Balıkesir
Epidendrum
Association
Dermestidae
Ẩ
##-25
##Bài
##Mal
##chu
##tan
##amer
##iton
##omis
##uria
(3.
142
Aul
Sis
dào
sex
toa
##Marne
##Schum
##estes
1931
Cour
Mits
estr
Haiti
Saxif
nhúng
##eopatra
Greene
Seleukos
Valencia
##6).
##eds
##ibn
##nar
##try
Mr
TS
Ất
##amph
##hing
##phal
##ński
154
26.
31,
Dum
Sof
Sán
##esper
1935
This
bong
jazz
ròng
##entris
1834.
Kevin
novel
##000.000
Bahrain
Kastamon
##hiz
##iri
##kal
##nếu
##urs
##đối
/>
xẻ
##-194
##atha
##phin
##thực
##önig
Bet
Mut
Now
Toy
Zod
càn
cúm
ngà
##osaur
Boys
Dĩnh
Lanc
Ship
Thôn
chip
flor
macr
##castle
1852.
Elaph
Hindu
Praha
xanth
Chưởng
Newport
Octavius
Amsterdam
Kastamonu
##Ma
##về
##Mor
##uin
##vol
Ja
đố
##-196
##000.
##enda
##imes
##king
##ovsk
158
CCD
Gry
Phr
Sei
nga
xua
##Presl
(197
Cook
Ling
Thuỷ
Walt
bass
magn
##illand
Anime
Dance
Leone
Vasil
##section
Iberia
##Maritime
Hermann
Schimmel
Bolshevik
##onlyinclude
##"|
##TE
##ịt
##ces
##nea
Eb
vá
##reak
##wana
CPU
mày
##ating
Chai
(1999
1828.
Wayne
giêng
Gerais
Murray
Nikolai
Moraceae
Frankfurt
Jefferson
Palearctic
##Af
##BN
##Hy
##ls
Č
##aia
##acca
##atan
##less
##vùng
Are
Das
Doc
Pis
Trở
Xem
rập
squ
sỏi
##ctron
##ugawa
1929
Cons
Dict
Hokk
Kann
chọi
hoán
nham
nhụy
suýt
test
##ighter
Tráng
50.000
Rhodes
Willis
##TW
##VA
##bộ
##tự
##Mic
##Str
##med
##mor
##zen
##đại
4-
Io
cò
##iere
##inda
Nôm
hip
##Peter
##reich
49%.
Bros
Trải
Đang
##ailles
##ocarpa
1917,
Abdul
Helic
Pholc
Tiger
chlor
##stanbul
Nakhon
Santos
Sebast
Wright
Linnaeus
Lucanidae
Orthotrichaceae
##"(
##05
##ATA
##Gia
##key
iP
đả
103
Amp
Bak
Lop
Lyn
ram
##arina
##mania
Adel
Anat
IUCN
Kịch
chén
diệu
thoả
xiêm
Đáng
##inella
##rostis
ASEAN
Luzon
Cardot
Gordon
Malawi
Maurit
Michel
Holttum
Sarawak
Honduras
Pholcidae
Brandenburg
##Ab
##TO
##đa
##ни
##Ang
##Pal
##sey
1-
##etum
##lect
##ović
##usia
##xicô
30%
Cầm
Lub
Meh
Pre
Tán
lip
rug
yến
##anium
Brah
Lạnh
Phải
cast
sten
Kelly
Stein
Tajik
khiếm
Sparta
photon
Malpigh
Polypodium
Uzbekistan
##SEE
##ướu
vả
##anny
##ectơ
##igny
##ilio
##more
##ocen
##phía
##rina
Châ
cằn
##aiser
Camb
Mard
Nees
Nhằm
gene
(2000
1914,
dance
Balkan
Orange
Rwanda
Sahara
phượng
##nathidae
##Ba
##EN
##GN
##PL
##RT
##-14
##Bar
##lep
##wat
Tý
##Côte
##iani
##idea
##immy
##itte
138
Gay
Lem
##adill
##ngoại
##ouver
1500
Gibr
Hold
Math
XVII
báng
coll
trọt
##erland
##orient
1825.
Claud
Erich
Polyc
Trạng
Weise
Wrest
loãng
England
Siberia
Venezia
Juventus
Nicholas
##Tur
Dị
Kö
MW
vỗ
##Azur
##andi
##cách
##ocos
##tria
##ředo
0,5
129
2-1
Ars
Fed
Jih
Kau
lăm
phì
sec
##allas
##altar
##eodor
##ublic
Pent
Proc
Vall
glyc
##oaceae
##oderus
##utiaux
Nokia
##acantha
##ockholm
Atlant
Golden
Nelson
Nhưỡng
Watson
200.000
Jacques
Selagin
##ředočeský
Fleutiaux
##PA
##nd
##60%
##lúc
##vir
##ưởi
##enii
##enis
Cin
Mom
Ngộ
bôi
búa
##ullah
Arts
Benj
Suối
bỏng
Cairo
Calli
Hyper
Nephr
Nhuận
kiêng
Graham
Phanxicô
Malpighiaceae
##EF
##10%
##Gar
##Wil
##cái
##ige
##izu
##opp
##ovi
##atis
##isha
##stal
##ürtt
32,
Amm
Asp
Bed
Bid
Kra
##Black
##Thanh
##chẳng
##istis
##ollar
1934
48%.
Soph
diệp
thoa
trèo
Phill
Thang
##aeaceae
##eration
Cephal
##oziaceae
Chamber
##ürttemberg
Středočeský
##06
##ON
##Po
##TH
##yk
##90%
##Lam
##emi
##eza
##gần
##hik
##hoe
##shū
##uno
##zia
tủ
##Quân
##adin
##avar
##iyah
##kina
##mins
##ucky
##yerm
137
25.
Aus
Bun
IBM
Joa
Sug
Yas
amb
dep
lac
sập
tết
Đáp
##ellum
##ikaze
Barr
Blan
Brid
Buôn
Hiểu
Hunt
Miêu
Pink
Serg
Thấy
Tầng
Vanc
Viêm
chìa
gram
viol
vựng
##Calais
Blume
Palau
Press
##opsyche
Giovanni
Tectariaceae
##900
##aha
##kow
##lyn
##ocn
NS
Of
lơ
##alog
##amea
##nick
##taff
##town
Cứu
Hex
Nao
Ost
Pao
TVB
Xét
deb
dim
đúp
##annon
Bull
Free
Gonz
Link
Nadu
Ngưu
Perd
Ther
Tong
Trav
mông
Cerat
Nixon
Gustav
khoảnh
Society
Universal
##AE
##_3
##cơ
##zu
##Bur
##tep
##aten
##elma
##hire
##oker
##play
##ymus
(2.
135
146
Ceb
Hey
Jar
Kob
Táo
bor
keo
rib
(196
Benn
Chit
Luận
Madh
Term
Nương
Syzygium
Tennessee
##fi
##fr
##ìu
##lah
##tại
Cự
Ia
we
##amia
##ends
##esel
##imbr
(13
53%
Pec
Two
orn
đùi
##ayama
##sonii
##urbit
1917
Andy
Biết
Chín
Fiji
Loạt
Rồng
nhặt
thuở
##entino
##oshima
INSEE
Samoa
giông
##iflorum
Dragon
Platia
Virgin
trượng
Eugenia
Himalaya
Maryland
Xinglong
Newcastle
##EG
##QH
##YP
##ağ
##ño
ụ
##5%,
##70%
##Khi
##atz
##eog
##log
##uis
##uts
Ov
úp
##-195
##bine
##nger
##quận
139
Did
Emp
Gau
Hợi
Lay
Ras
doạ
kẹo
rạc
sol
vệt
##oidea
##trung
Barn
Bord
chậu
##Nguyễn
##ularia
Grimm
Nhiếp
Sphec
Frances
##är
##/18
##inz
id
po
##Roll
##chev
##etic
Dep
Gud
Vas
cọc
his
lầu
##Super
##eting
Clay
Mộng
Oman
Ridl
Tuất
chày
vill
điểu
##ochrys
Delhi
Vegas
chưng
##assidae
##orhynch
Franco
Summer
Cameron
Timberl
hormone
##kg
Ś
μ
##She
##Văn
##viv
2)
mạ
##asso
##neph
##quez
##rang
##yeon
147
Bot
Kaf
Mác
Sho
Thì
Thử
tẩm
val
##Inter
##lanta
1923
Dmit
Gekk
Home
Josh
Phys
Vald
lanc
quấn
ster
thâu
thối
Aguil
Class
Takah
eryth
Mandya
Mariana
##Cambridge
##ophilidae
Augustus
Tokugawa
##osomatidae
Gyrinidae
Stockholm
Vancouver
Timberlake
Versailles
Tetragnathidae
##NH
##ku
##-13
##lev
Dĩ
HM
sô
up
##ause
##head
##hiza
##iler
1,2
1.2
112
143
144
30.
Cec
Zyg
luc
mad
rep
##istol
##ueang
1910
Spir
conf
phen
prop
sunf
tetr
##ricius
1990)
Field
Idaea
Space
Mysore
Digital
Fernando
Gibraltar
McCartney
##07
##VC
##Bad
##One
##iny
##izz
CS
Xử
lị
ải
##esis
##orax
##ères
123
126
Dứa
lắc
##2.000
##Quảng
##acker
##atory
##prise
1914
Doub
cord
miên
sưng
1832.
Gloss
Metac
State
alpha
40.000
Berber
Hamburg
Shimoga
Stanley
Turkmen
Istanbul
Gomphidae
Aristoloch
Sparassidae
Thelypteris
##cả
Ă
##You
##dan
##köy
##roe
óc
##Rich
##elus
##oven
##teau
##yang
12%
Daw
Mug
Nur
Rot
Xác
Yan
dưa
has
tụy
##allis
##ember
##urium
1908
Mack
Metz
nhồi
##eijing
Aster
Kalin
March
vectơ
Harold
Hunter
Kuwait
Napoli
Office
nigric
Benjamin
Theraphosidae
##cr
##Kun
##gat
##rod
5%
Dã
Eo
gã
##asan
##elop
##erta
##iera
##lyph
Alp
Hud
Kul
Pax
nại
vọt
(195
1912
Hamm
Soul
THPT
With
Zero
chốn
kiếp
phẫn
Đứng
##ulatum
Manga
xavan
##Pardosa
##olophia
##ysticus
Belgaum
Philippe
Warszawa
##FI
##ال
##Hán
##Tay
##VID
3–
##arca
##aric
107
111
134
Bật
Dậu
McL
Tul
Yel
gal
gom
lẫy
xót
##7.000
1932
Bath
Gamb
Kham
Nebr
Over
http
muôn
nhuệ
##astrum
##illaria
Libell
Mancha
Oliver
##idelberg
Pickard
Seattle
Cucurbit
Churchill
Philippos
##cá
*
##ohl
##yrt
Tờ
Ub
nộ
##abra
##anto
##ebes
##giải
##lora
##ytes
##Điều
(11
Ara
Cot
Hồn
Nol
Sym
Tat
Und
Wak
Wel
Wii
búp
Đời
##ecium
##illon
##oline
##ylind
1921
Dead
Firm
Glen
Less
Phạn
Quay
##ocerus
Alpha
polym
Fraser
Nhượng
Sailor
Cleopatra
##ór
##úm
ủ
##8).
##die
4–
ủi
##-198
##West
##aidō
117
161
171
64,
ABC
Ave
Fat
Hur
Myc
Pug
Vốn
phô
##barga
##craft
##rogen
Cart
Chăn
Raph
Typh
Yong
1993)
Belle
Dylan
Mello
Nhược
Rhine
khiên
trich
##ihanouk
Ernest
Instit
Steven
Nebraska
##Fr
##IR
##ро
##emm
##unb
##ãnh
IA
Tá
Tể
mò
##ango
##emum
##eoph
##ibal
##inct
##oris
##utth
106
240
Bod
Dyn
Kır
Món
Tuệ
her
inf
kẹp
xay
##orata
1922
Batt
Bomb
Craw
Gill
Gren
Krak
Ostr
Ranh
Voss
chồn
1831.
1855.
Bryum
nguội
##mingham
Genève
Master
Doraemon
Mitchell
Sihanouk
cacbonat
Foundation
##Sw
##Bai
##hat
##loe
##uff
2–
Ce
EX
xế
Ốc
##etri
##gang
##ient
230
Fai
Lên
McK
gạt
sur
trệ
##andin
##ights
Fact
Kath
Maya
Ngao
Nghe
Sunn
Verd
ghen
part
Đống
1932,
Erica
Thoại
Adiant
##ocephala
##Di
##It
##Ur
##fe
##họ
##-22
##jab
##kor
##lea
##yah
Há
Lò
mo
##down
##trup
133
Ain
Boc
Bom
Chị
Fur
cer
cạo
dạt
dặn
lep
xáo
Đèo
đấm
Denn
Toại
nigr
tiễu
Đúng
Silla
Trach
silic
urani
Necker
##asciatus
Beijing
elegans
##sterreich
Fabaceae
Anthurium
Gekkonidae
Jungermann
Stalingrad
Cucurbitaceae
##BO
##MT
##Ber
##Gre
##Ham
##ims
##kes
##lon
##thy
DS
##iken
##onda
114
3.0
Ana
Ent
Gan
Lặc
Mey
Our
mus
one
tẩu
vãn
##aulis
##ohama
1927
Chao
Hách
Midd
Thìn
chầu
ngạo
toan
##endorf
1810.
Jimmy
cover
##üringen
Cannes
phosph
Thompson
gracilis
Fabricius
##sẽ
£
##Min
##Red
##acy
##gei
##lei
##lip
7–
Ll
dr
##Rhin
##Schl
##Tổng
##aray
##chia
##hình
##iban
##olab
##ouse
##phis
##reus
(30
132
136
141
HTV
Kis
RNA
exc
quạ
đốn
##enger
##enson
##gorod
##icket
Clar
Mong
Suốt
Sylv
cyan
##essand
##istena
Basil
Krasn
Panth
elong
xuồng
##William
##alyptus
##opsidae
Explor
Global
Samsun
orient
Heidelberg
##GA
##Mi
##év
##Sil
##eka
##hem
##ono
##Đài
SK
bã
kệ
nã
##/197
##ards
##hard
148
Dấu
Ltd
Nab
Oai
Rib
eng
iOS
jap
##6.000
##chiến
##imant
##thông
1925
Dend
Junc
Nham
Prom
thia
##enegro
##eville
##ilding
##inatus
##olspan
1826.
1989)
Cyrus
Çorum
##ogramma
Austin
Libert
Marcel
Ulithi
thuyên
Central
Cyathea
Mordell
barangay
Christina
##HS
##PM
##üd
##şı
##auh
##eum
##gon
##ieb
##imn
##uit
ec
ul
##chis
##enzo
##real
##tiền
320
33,
Lap
Nac
Soy
bạt
náu
##Chính
##Tunes
##acter
##eople
##idion
##maire
Berk
Cath
Mour
Shir
Thận
Giêng
Tuyển
liêng
obtus
vướng
Electr
Franch
Hooker
Nobita
hydrox
Singles
Yokohama
Lepanthes
##?)
~
±
##Roy
##Rub
##Wat
##adh
##ils
##ues
##đầu
##araj
##igua
##onom
##ores
##yrus
118
Bửu
Esc
Tig
rơm
rốt
ste
##burgh
5000
Aden
Iron
Kurd
Nass
Part
Quắn
lướt
##Trường
##esliga
1992)
Amaur
Isaac
Polyn
Quyển
Weber
Calvin
Miguel
Bohemia
Armadill
Bismarck
Habsburg
##04
##Sau
##dân
##ocr
Dn
Ve
##Hiệp
##athi
##dera
##elii
##icut
##imar
##ness
##onta
##uxoa
113
121
Ess
Lak
Nau
Pab
hột
##angul
##atius
##ovina
##readn
47%.
Bỉnh
Cran
Hoff
Kill
Rest
giàn
giòn
1926,
Andes
China
Chủng
Opera
khoái
phách
##opteryg
Teodor
##American
Hiroshi
Navarre
Ravenna
##illandsia
Dicranomyia
Libellulidae
Ê
##TTg
##dez
##inf
1)
HĐ
Kw
Xi
##agle
##enke
##entz
##inga
##reis
##roph
##star
##umer
203
Dus
Suk
Tức
new
nhở
you
##epend
##immer
Dion
Erem
Fors
Pasc
Zoph
chót
lộng
nanh
serr
trỗi
1931,
1934,
Hemer
Tiber
##unctata
Athena
Salvia
chưởng
Liberia
Caroline
Bundesliga
##Gl
##ếm
##odi
4:
SE
nọ
##aeng
##akır
##arde
##atta
##auda
##ayan
##etsu
##ycin
1.9
Cyb
Kel
Nặc
Raw
Sac
Sào
Tyl
fir
hel
lõm
trỏ
##issus
##zurum
1924
Ambl
Chal
Chev
Phàn
Ward
diều
gris
rạng
##omanes
1933,
Hills
Italy
Tamer
Women
Castel
Rodrig
choàng
iTunes
##österreich
##DL
##HP
##RE
##Thế
##odo
##uko
Ik
##aves
##sche
104
124
CEO
Cym
Hốt
Map
Tch
Vậy
chê
hop
lều
##emann
##icill
Gott
Hama
Thám
Tord
lửng
ngói
phao
1829.
Arena
Guard
Krông
Quyên
Totte
Troch
Trừng
ngỗng
tuber
##olution
Castro
Danube
Malaya
Erzurum
Gilbert
Aderidae
Pyrénées
Tottenham
Birmingham
Montenegro
##Ta
α
##Cap
##Hel
##Tân
##Wal
##yer
##yps
Dü
Wy
na
##Tiểu
Bìm
Eph
Non
Oed
Peg
Sob
soi
Đán
##found
##inosa
##organ
##phiên
##terol
Bond
Nash
Terr
nhẹn
##ournal
Silva
Centau
Meteor
##ellaceae
500.000
##readnought
Animation
##01
##asm
##nez
##nge
##odr
##rei
1%
Ağ
Kı
nụ
##Club
##Wang
##alya
##ecký
##espe
##nitz
##trúc
Fay
Hắn
Rih
bus
lít
nản
sồi
sục
vác
##color
##ipper
##oming
##osuka
##otoma
1928
Arab
Hugo
Moun
Nàng
fulv
kình
meth
1922,
1986)
Diels
Ernst
Gabon
Nhiên
ngoạn
##ization
Bosnia
##unicipal
Moselle
Turridae
Zodariidae
##Fl
##MI
##Pol
##eoc
##pet
##rob
Hè
MI
NO
PA
##bean
##enas
##itão
116
Chr
Cun
Duc
Sửu
art
lev
vol
##...).
##amura
##arium
##iline
##iness
##inson
##otten
Beck
Chùm
Gian
Lund
Mick
Vent
chui
liềm
logo
Điệu
1835.
6.000
André
Odont
Sofia
Songs
Nevada
nhuyễn
##iventris
Aguilera
Yokosuka
Greenland
##Ed
##Top
##bow
##ivo
##mal
##tây
5-
RA
ev
go
kn
ri
vo
##Down
##ichl
##oter
##čina
31.
40,
Hưu
Stu
Thỏ
hoi
lốc
rỗi
tuỳ
##3.000
##apest
##athon
##emont
##tenus
Nong
Palm
Rech
chói
ferr
liêu
Engel
Khoái
Megal
buông
super
##orussia
Ayutth
Chuyện
Embrik
Spears
Turner
Sherman
Thorell
Woodsiaceae
##No
##Pa
##üş
##ан
##ẽn
##Eng
Dạ
Sr
##aeta
##chez
##leyi
##oros
##phim
##tổng
##vest
##yris
Kil
Koz
Rou
Yah
hat
##8.000
##ablan
Dean
Epic
Mali
Sóng
Thỏa
Trâu
Điệp
##aparte
Alder
Evans
Harms
Julia
Putin
Stark
gamma
hiđrô
Atlanta
Limneph
Madison
Nieders
##foundland
Louisiana
Mauritius
##vn
##ebe
##ebo
##roy
##ydr
GB
Uh
##Thần
##ilen
##lach
##phân
##umbr
##zano
Haj
Sok
Tốn
Vid
Vịt
hét
vấp
ôxi
##ative
##eshow
##iance
Kitt
acut
foot
mart
##charis
1924,
Khuông
Manisa
Saipan
Britton
Legalov
Leopold
Montana
Palermo
Porcell
Budapest
Electron
Manhattan
Thüringen
##HH
##TR
##XX
##đề
##ớm
##oru
##top
##000,
##Tình
##abal
##ices
##itol
##oang
##ubia
2-0
Adv
Ayd
Cau
Det
Dob
Inn
Kid
Pay
Sắt
amp
had
mur
ngả
ráo
##Enter
##agner
##elius
##perus
##phone
Mann
Soft
Thuỵ
Vary
chóp
phàn
thớt
##agidae
##inalis
1988)
Carac
Conan
Idlib
Konya
Ptych
Louise
Mobile
Phalac
Alberto
Bristol
Ronaldo
Aquitaine
Ayutthaya
Fairmaire
Tajikistan
Niedersachsen
##OP
##ān
##Syr
##ful
##igg
##ogh
##tuy
##vet
##ơng
Đê
##Lịch
##adio
##char
##elon
##hich
210
Gur
Trợ
bal
beg
hốc
off
##ittor
##ophis
1913
Bast
Molt
Next
phot
tòng
##Anhalt
1995)
Athyr
Earth
Final
Montg
Nymph
trũng
##anagara
studio
Connect
Firmino
Stevens
##Peterburg
Generation
##FL
Ü
##-2,
##bat
##eyn
##igm
##lot
Cú
Eh
##beck
##dido
##eros
##ethe
##fish
##gart
##rius
119
34,
Bug
Cám
Dật
Kus
Row
bìm
nấp
pub
Đổi
##oloph
##oment
Arms
Holt
Joan
Mast
Sanh
Spil
Sukh
Type
chẵn
mồng
ngắt
nhẵn
nucl
##Leitão
1.200
1929,
Singh
Strab
minor
style
##enhagen
##serling
Houten
Moltke
Mueang
Sphagn
choles
##otrichum
##thesaban
Galicia
Geotrup
Brothers
Zopheridae
Phyllanthus
Loranthaceae
Turkmenistan
##Go
##OM
##RP
##_4
##cke
##gun
##iku
##irc
##sei
##sha
Wu
tỳ
##Thời
##atty
##mail
##odus
##rade
##sein
Buk
Roc
tốp
Đéc
Ưng
##achal
##ilian
##insky
##osteg
##rahim
##ritic
##skaya
##stadt
Cric
Elae
Nhai
chèn
cược
khốn
vượn
##igidae
Billy
Force
Laura
Paran
Tokat
Direct
Geneva
Hebrew
##ospermum
Cândido
Project
Steyerm
Alessand
Explorer
Fujiwara
Copenhagen
orientalis
Elaphoglossum
Eriocaulaceae
##Mc
##NS
##ар
##avi
##hra
##isk
##màu
##yga
##ück
##Đạo
3:
##apat
##cole
##igen
##litz
##động
2.5
Cad
Hôm
Hạc
Mud
Nhữ
Nyc
Oak
Ole
hoả
res
vis
##abria
##aceus
##fried
##orpha
##Đường
Emmy
Trel
Trop
have
phil
##atidae
##smouth
1925,
Anura
COVID
Galil
##ochrysa
Prince
purpur
Maurice
Phoenix
Theodor
Tamerlan
Caribbean
Molophilus
Leptodactylidae
##02
##CV
##yj
##ỏm
##-1,
##Chr
##ayo
##dom
##ste
HT
Rí
av
nơ
##aedt
##iden
25%
Cặp
Diy
Ian
Ols
Vys
hít
##ellow
Bert
Chẩn
Cont
Desm
Hoắc
Kiss
Rend
Tiều
Toul
Warn
Year
thon
trân
đàng
##entine
Marne
Motor
Chiang
Engine
Bourbon
Gulbarga
Charlotte
Geotrupidae
##08
##đi
q
##NCH
##Vua
##aib
##aic
##non
AI
AV
Ix
PP
mỉ
Ăn
##Comm
##itum
##mara
##othy
##wing
(4.
29.
Civ
Fuk
Hua
Idi
Kut
Neu
bol
clo
ghê
lar
max
uất
##actus
##atrix
##muban
##otrop
##utell
Bach
Bird
Extr
Hero
Kant
Nhậm
Rost
Spec
Wald
Wend
cước
gươm
lách
then
trói
were
##lahoma
##olepta
1994)
Bahia
Chaet
Dixon
Mount
Sumer
chăng
coron
##ablanca
15.000
Burundi
Miconia
Novgorod
Eucalyptus
Philippine
Athyriaceae
cholesterol
Newfoundland
##ál
##éb
##öm
##Rom
##dev
##ext
##phi
FM
Kê
SD
##asta
##asus
##icea
##nhóm
##nước
##pina
##thay
##tris
##ucci
Him
Hod
Lắk
Nên
Ret
Tha
lim
Đấu
##akura
##ectus
##yllum
(179
1926
Axit
Bồng
Chia
Curt
Idol
Kurt
Mers
Mina
Sent
Utah
Vand
Zeus
card
will
1996)
Braun
Nhiễm
Stars
virid
##egovina
##odromus
1999).
Airbus
Comics
Monaco
Reagan
Leonard
Nicolas
Rihanna
Charente
Takahashi
##03
##CL
##Ca
##EP
→
##bos
##day
##ems
##lee
AB
Cz
Ey
Sỹ
sộ
tẻ
##...]
##Miss
##Nhân
##ains
##edon
##neby
##oche
##phon
27.
Akh
Aub
Def
Edo
FDA
Lys
Mão
Phe
Rah
Won
sải
sấm
tằm
##Jones
##LVNCH
##ellan
##enton
##ovice
##uther
Baly
Font
Trev
luộc
mark
##eolata
##eromia
Coryd
Fisch
Jesus
Nancy
Torre
quark
##ostylis
Suzuki
Warren
Rangers
Cricetidae
Keyserling
Portsmouth
Johannesburg
##))
##Ir
##UN
##mã
«
##Gen
##Pop
##aja
##dad
##hol
##itu
##nhỏ
##oie
##sii
Ax
IM
Wi
Ác
##appy
##arao
##cuộc
##dưới
##gens
##ierz
##itsu
1/3
Hae
Khe
Pai
Saw
Tad
gầm
pus
vùi
##ignon
AIDS
Bald
Desc
Flow
Hyun
Noth
Orle
Rhin
clip
post
Aaron
Alber
Bursa
Denis
Ficus
Giọng
Marco
Niger
Sương
##minster
Collins
Moldova
Florence
##identaceae
Bonaparte
Marseille
Chamberlin
Passalidae
##"-
##Ap
##Lý
##XH
##gyz
##đôi
CC
Dy
Gy
Wa
##Kinh
##Mont
##emus
(??
1.6
11%
35,
Bes
Bây
Cit
Cow
Khỉ
Tes
Vos
cac
##astus
##ippon
Bonn
Brem
Chun
Ferg
Pall
hist
nhớt
##Atlant
##ittata
1921,
Baill
Blood
Diosp
Jerry
Luang
Mahar
Steel
nghẽn
##icester
##ostigma
Ankara
Sports
##agrostis
Academy
Aristot
##richaceae
Neckeraceae
Fissidentaceae
##皇后
##-34
##Dys
##fil
##ipt
##sar
##umo
##wad
Củ
Ut
Yo
Ưu
##acht
##atal
##egal
##leri
38.
Ces
Gib
Gün
Màn
Rel
Ses
dis
fus
lẻo
tel
vất
vẹt
##untry
1870
Bucc
Hern
Joel
Phot
Shel
Sind
Smol
That
Trãi
corn
noãn
trăn
võng
Đuôi
##ashtra
1916,
1928,
Honda
Liber
Ngang
Porto
contr
##magalur
##ochilus
Rafael
##Clubiona
##odontidae
Chikmagalur
Mordellistena
##bị
##kể
##-35
##-52
##Lyc
##Met
##ayi
##ble
##woo
NT
Ya
İz
##Cộng
##Mazz
##Nees
##enzl
##iste
##phyl
##reet
##skii
##tepe
##than
Buc
Eud
Mùi
Nạp
Yen
##asaki
##ersen
##estan
##raine
1911
Chir
Coni
Stap
##staedt
##tropis
Barry
Eryth
Nadal
Telev
chích
tuồng
##Garonne
##espeare
Guyana
##iculidae
Fighter
Sheeran
Silesia
Western
Robinson
Amaurobiidae
##Do
##RC
##ça
##-40
##Neo
##cao
##chy
##ffe
##leb
##mac
Ip
SO
##Char
##Mich
##asse
##atur
##hyun
##idas
##inja
##oban
##onde
##ytum
000
Bin
Bân
Hát
Hôn
Lối
SBS
app
bis
cào
ell
ibn
nad
vel
##Steph
##agnep
##allus
##elsen
##esses
##giống
##leria
##ythia
1905
Dist
Nest
Olig
barb
bích
call
cưng
mắng
pach
thêu
2.500
Helen
thiếc
##acaceae
25.000
Africa
Forest
Hypnum
Kyrgyz
Midway
Thebes
Ardisia
English
Mercury
##Syrphidae
Jonathan
Kentucky
Diospyros
Rhyacophilidae
##HT
##ре
##Shi
##Tuy
##can
##loa
##tập
##Đây
5–
Ou
om
##...,
##Camp
##Tetr
##akin
##erno
##itas
##mani
##nhân
##ochi
##ocus
##olle
##oque
##plic
##side
Oce
Yun
Zor
bịt
hol
húy
ưng
##Austr
##Bolus
##imoto
##ollow
##omery
##tahya
##track
Copa
Cyph
Cổng
Gilg
Tiễn
Tomm
Uông
cycl
diff
pauc
pers
##Taylor
##Thượng
##ffinis
##iferum
1913,
Blake
Death
Saudi
Thuột
##Quercus
##arbakır
##ertaker
Allium
nitrat
Edition
Holland
Kütahya
Reitter
Hokkaidō
##Vorpommern
Metacritic
##òe
##Her
##alb
##cat
Dw
SI
rợ
us
ve
##/195
##Call
##Long
##iane
##imer
##nhạc
##odar
##olic
##onus
##orst
##reng
##serv
50,
Bứa
Hân
Kik
Quỷ
Tit
bif
bùa
##Kunth
##White
##World
##aston
##otsky
##ández
Brig
Chin
Metr
amph
##elidae
##omphus
1923,
Khark
Lynch
Phóng
Selys
Under
mương
phiện
Vienna
Orleans
Campbell
Liliaceae
Melanotus
##opterigidae
Diyarbakır
##FS
##LM
##-80
##Lep
##arh
##aub
##ezh
##iso
##iya
##vai
Kỉ
ne
##ambo
##bằng
##ebel
##eola
##etra
##inam
##inii
##ivan
13%
37,
75%
CON
Quê
hen
méo
##Vương
##acher
##isenh
##üller
(178
Acal
Edin
Kara
More
Page
Tall
ngây
rách
thóc
##Schltr
##ostris
(1990
Kuala
Store
enzym
thuôn
##radurga
Athlet
Cherny
Griseb
Oricon
Rommel
Ronald
##iculatus
polymer
Magazine
Moldenke
Christmas
Dennstaedt
Chitradurga
##Av
##ōk
ê
##Ban
##TWC
##fus
##hee
##jor
##oai
##oas
##vào
lờ
Án
##auld
##boat
##erul
##gren
##inov
##into
##ixel
##pert
##rive
Als
Cối
Kud
Poz
SEA
Sầm
Teh
cel
cám
nến
ren
##Grand
##achia
##astic
##avier
##avský
##idius
##ierre
##pınar
##quist
##yphus
##yrium
1890
1916
Byel
Cann
Emma
Kiện
TNHH
Tước
Zach
trêu
điềm
##agrion
##amphoe
##mannii
1991)
Ahmad
Bruno
Cardi
Garay
Herac
Pérez
Rural
Voice
Andhra
Claude
Eisenh
Gandhi
dollar
Caledonia
Peperomia
##opterygidae
Montgomery
Undertaker
Adiantaceae
##hệ
##ák
##10.
##Lou
##Que
##agr
##bắt
##thứ
"'
BM
Ré
lọ
sò
ỏi
##arov
##edom
##iaca
##liên
##neri
##olph
##ôxít
Eil
Gel
Jor
Kub
Oax
Rut
Trừ
Zag
ped
rev
ter
##ammed
##chiếm
##omant
##uncta
Bish
Hapl
Lucy
Orig
Trab
Verm
Wins
brun
chóc
golf
thắp
##ayashi
1927,
Delta
Giảng
Metro
Sunni
There
Toshi
##ochorus
Monroe
Mozart
Square
Everton
Scandin
colspan
Ichneumon
Blechnaceae
Rhyacophila
Westminster
Nepticulidae
##EE
##EM
##kẻ
##lé
##ml
€
##Bản
##asg
##cer
##eok
##gir
##isl
##lus
##máy
##opr
##rup
##tis
Bổ
dì
##Good
##ency
##isse
##oard
205
4,5
Cic
Kok
Liu
Nas
Ord
Reh
củi
gáy
pro
quỵ
tía
vắt
đóm
##4.000
##esian
##leton
##panic
##zburg
Gert
Hist
Mare
Path
Phry
Piet
Ricc
Sean
Sess
Yale
chồi
clav
Acrop
Ailen
Bened
Cheil
Contr
Echin
lymph
nagar
which
QLVNCH
Zhukov
##richidae
Colombo
Express
Federer
Jihomor
Shakespeare
Jihomoravský
##DT
##LS
##rí
##ıy
à
Ž
##Thu
##aek
##aft
##hal
##oce
##rep
##ulg
##xus
##–15
CF
bơ
dẻ
##Theo
##acus
##asco
##ibir
##igne
##jung
##nica
##onic
##ovia
1-1
2-3
650
KBS
Mắt
Pia
See
cúc
cạp
giò
hem
lax
mir
##Blake
##album
##ascus
##aspis
##inerv
##light
##opean
##otica
1904
Choi
Comb
Glor
Hope
Lima
Lông
Nghề
Yoon
bướu
ngào
nhàn
niệu
oliv
poly
##avirus
##manuel
##oneura
##ushima
1801.
1997)
Alpes
Zhang
phước
##ilaceae
2018".
Dolich
Oaxaca
Punjab
rotund
##osterone
Deutsch
Roberts
Science
affinis
Hannibal
Leicester
##">
##но
##ол
##-50
##-90
##Bay
##Chủ
##Myr
##ová
##qui
##thị
##đốt
GA
Wo
Xà
né
##-202
##Bình
##Cast
##TVQH
##Trần
##agos
##ohen
##ópez
##điểm
Cay
Cơn
Jur
Ngã
Rox
Viv
Voi
ass
bới
chả
har
mút
ngỏ
thr
tor
tua
tót
tụt
Đáy
##eolus
##hynch
##pinus
##ranth
##young
Coch
Erit
Falk
Fris
Lion
Mett
Oise
Prop
Thảm
Tort
Trâm
heli
nhộn
##Hangul
##Watson
##ididae
Busan
Heath
Spart
Terry
Albums
Dactyl
Drepan
Rachel
Trento
Chester
Calvados
Electric
Pterolophia
Hookeriaceae
##cm
##tv
##ич
##-47
##Jac
##Mel
##zeň
IC
Tỉ
az
át
##alea
##away
##chem
##iles
##ydia
131
260
Erm
Esp
GHz
Mab
Onc
Oss
Rég
Tac
Wan
ber
mex
mix
vét
Đám
đậy
##evsky
##ility
##water
Cang
Enic
Kobe
Prix
Vành
Watt
cent
glob
lạng
1915,
1987)
Aydın
Front
Magic
Plzeň
Polyt
later
##formula
##opterus
Garden
Kosovo
Pascal
Winter
diesel
Barneby
Bologna
Jessica
Solanum
Portland
Eisenhower
Connecticut
Maharashtra
Productions
##Ho
##Ro
##Bat
##Mad
##cle
##ief
##rem
##rất
##tam
##ôme
CA
Ci
IF
Vỏ
xì
êm
ال
##last
##ning
12;
39,
Boz
Hag
Pag
oxi
por
vặt
##Chrys
##Heter
##berry
##chnyj
##ichen
##union
Cabr
Capp
Chúc
Fasc
Gary
Hubb
Mort
Phra
Rosa
Sper
Winn
chắt
dens
rang
##obryum
##oensis
##ternat
##yrodes
1984)
Chand
Crete
Glenn
Metal
Raich
khăng
##Rolling
##iothisa
Cooper
Indian
Online
Pedley
##icularis
##omorskie
Castell
Jakarta
Limited
Panther
Athletic
Broadway
Nauchnyj
Fissidens
Racosperma
Semiothisa
##IL
##ий
##9).
##How
##Hải
##aby
##nak
##nev
##ượm
('
SN
SV
bỉ
##Sing
##agna
##aros
##comm
##oncé
##otia
##otto
##rice
1,4
Amb
Bav
Bọn
Cảo
Dil
Erz
Sou
Tah
Tấm
qui
red
vứt
##innam
##ippus
##itsch
##ophyl
##oxide
Anto
Buff
Bông
Cous
Ruiz
Samp
Suez
Tell
cand
hổng
khỏa
live
##icinae
1870,
Bresc
Grace
Malat
Prist
##ognatha
Family
Veneto
300.000
Gorbach
Hussein
Ibrahim
##Im
##SD
##nu
##ος
##ка
п
##Hed
##alı
##kad
##müş
##nhũ
##olu
##utu
EA
GN
GR
Mn
SU
##erre
##inki
##odel
##opet
1,8
1-0
1-2
550
60,
Dah
Dit
Get
MBC
McG
Poa
USA
[""
att
bic
bực
kíp
rai
sax
sul
toạ
##azaki
##ensen
##erman
##ocala
##ophor
1915
Alps
Labo
Liệu
Mệnh
Poll
Vell
phật
prot
##UBTVQH
##osterm
Cichl
Moham
Plant
Arnold
Forbes
Lumpur
Manche
Mardin
Parker
Plectr
Saxony
teaser
Fantasy
Lycidae
Raichur
##elinaceae
Berkeley
Chernykh
Tasmania
Limnephilidae
##>.
##LO
##”"
>
Ż
##Hil
##Pet
##baz
##kam
##nen
##roa
##sor
##zew
Dz
kè
ĐH
##Hồng
##Land
##Nghệ
##ampe
##iard
##rapt
##rata
##sông
(25
1.4
33.
Gió
Haz
Ort
Ris
Who
Zap
lut
mes
sên
sầu
trá
##atrec
##ichum
##uncil
Head
Hels
Name
Todd
gang
##Donald
##bridge
##icalis
1900,
1905,
Hidey
Khủng
Small
email
##mmatius
##ospilus
Challe
vector
Algeria
Service
Takeshi
Whitney
Antonius
Hispanic
Saxifrag
estrogen
Habenaria
Charleston
Byelorussia
Commelinaceae
##ор
##-24
##Câu
##Sam
##pol
##yde
HO
SH
ST
rộ
##,...
##-193
##ades
##alty
##amel
##ansa
##avis
##esta
##face
##iful
##ikov
##olor
##ople
##oras
##sang
##umin
1.3
38,
41,
Alm
Box
Cov
Guj
Hob
Húc
Hối
Jut
Let
Niz
Poc
Rin
Run
Tày
bur
cói
mạt
nem
nhĩ
pyg
rig
run
ách
##Broth
##Perry
##eling
##erner
##ipzig
##očina
1898
1906
Brom
Edge
Erik
Hopl
Marg
Syng
quin
vũng
##ogramm
1912,
Bruss
Casey
Gümüş
Willd
##issiere
Bremek
Switch
##idiaceae
Incheon
Peckham
Ricardo
Dominica
Vysočina
Hampshire
##Württemberg
Santalaceae
##Về
##nó
##yū
##ód
##Hãy
##Xem
##erk
##kết
##lat
##pho
##umm
##vey
##ège
</
AL
CM
FK
##adys
##alth
##avid
##ayer
##eris
##heed
##oxin
##quan
##rand
##Đồng
(3,
280
44,
Amy
Bij
Naz
Sek
Yoo
Yus
hom
nhí
nới
phỉ
rao
Çan
##angel
##essus
##idine
##iques
##thiên
##ysteg
1907
Ajax
Elat
Harp
Iris
Ophi
Pard
Phép
Phấn
Ruth
Sche
Shan
Thuở
chật
falc
iPad
##acidae
##inness
Bobby
Chrom
Coast
Daryl
Lazio
López
Rhaph
Seiji
Thiều
huyệt
ninja
phình
phồng
##amensis
García
Gothic
Haveri
Lomari
Siberi
Stelis
Wonder
macroc
methyl
Malacca
Masters
Nacional
Nearctic
Oklahoma
Software
Cichlidae
Sebastian
Laboissiere
Orchidaceae
##Fe
##KS
##jō
##ễm
##Esc
##Eur
##Mey
##amn
##asz
##tựa
BP
cù
##/196
##Chen
##Hoff
##acta
##aldi
##alie
##anao
##apis
##flix
##icho
##iman
##khov
##kinh
##osch
##quil
##sons
2/3
Dag
Edu
ICA
Mây
Paz
Tax
Tek
dép
mat
rốn
tỏi
##ckena
##itata
##sberg
##trick
50%.
Alam
Crom
Elst
Eucl
Hisp
Nero
Oanh
Ston
Tiêm
hòng
máng
nano
##Dragon
##adenia
##ostema
Ahmed
Chỉnh
Euxoa
Khoan
İzmir
Bridge
Dodson
Empire
Mirage
Scheff
Siding
gracil
oblong
Georges
Kenshin
concert
##municipal
Brooklyn
Jennifer
Alexandre
##KA
##_5
%
##Off
##aho
##boy
##bất
##mất
##oix
"-
6-
9;
Aw
Kō
XP
##Mill
##hành
##ihar
##inas
##rook
##thal
##unov
##uton
##zsch
1,6
Agr
CBS
Gấu
Hak
Hik
JYP
Jag
Mek
Piô
cyt
dol
pum
spl
##blatt
##icans
##inter
##marus
##okawa
##video
##weinf
Baby
Berm
Biał
Bris
Donn
JTWC
Từng
flex
khải
1911,
Britt
Canon
Parac
Schiz
Valle
Vượng
afric
##anagere
##aragoza
Ashley
Johnny
pallid
Thomson
2011-201
Ptinidae
Smolensk
Mesochorus
##entropodidae
Glossosomatidae
##Gir
##Hol
##Let
##Yam
##afi
##bắc
##egg
##ibo
##luk
##pen
##zyn
SL
nể
đẽ
##-24,
##Mông
##aces
##aden
##aren
##ayev
##esen
##inna
##iosa
##ozia
##thần
##uana
##uron
##ören
1,3
270
36,
Haf
Lot
Phì
Phế
Sén
Tyr
USB
Von
baz
cup
flu
xát
##ambus
##ophil
##stedt
4000
Airy
Auto
Bran
Diễm
Eich
Emir
Hoán
Jima
Lung
Sega
been
khâm
nhấp
1985)
Clara
Krist
Movie
Salam
Tatar
Watch
Andrea
Basque
Belize
Latino
Scotia
interm
visual
##irostris
Alberta
Bahamas
Gertsch
Kashmir
Stephan
Zaragoza
Blackburn
Catalonia
Edinburgh
##xe
##ík
##公主
##Lời
##Phổ
##Sol
##bel
##erh
##iah
##jas
##oah
##zep
ID
MD
TT
Wł
##anax
##ands
##anor
##arto
##eops
##ibar
##ovka
##quốc
##stro
##yles
(5.
90,
Cag
Khr
Low
Lut
Miq
Muk
Pae
Pos
Vog
hex
mut
nạt
ref
two
won
Đồi
##istic
Ames
Cole
Flag
Nile
Punk
Vick
also
loét
ngứa
olig
prae
đôla
##odonta
Chàng
Jorge
##Poaceae
##adensis
##innidae
##ophytum
##phantes
Masdev
plasma
##odactyla
Hylaeus
Wallace
turbine
Campania
Chimarra
Damascus
Petersburg
Masdevallia
##vô
##ße
С
##-60
##Ass
##CAF
##Sat
##lac
##oha
##oit
Hề
IT
MU
Mb
NK
Oa
Vỹ
nm
xù
ĐT
Św
##alta
##etyl
##hara
##hiko
##égal
(24
42,
Ald
Fus
Gov
Ish
McN
Rat
dig
mph
múi
náo
tát
xào
##inese
##ofera
"...
Bots
Chak
Crem
Dort
Herc
Lisa
Neol
Nhập
Riga
Thuế
Troy
Yout
este
over
thốn
trặc
##essler
1890,
Agryp
Calam
Daily
Ellen
Euler
Geoff
Lagos
Symph
Tommy
Tower
Watan
track
##atsuura
##lington
Becker
Pteris
Sentai
Sergey
Stuart
Viking
##Williams
##elopment
##marachne
Beyoncé
Fernand
Ramesses
Corinnidae
Davanagere
Polygalaceae
##HC
##Kn
##ád
##Dai
##aji
##bie
##get
##ibi
##ipo
##kee
##kon
##mỗi
##sel
##tur
##urv
##öln
##đun
##–17
Bề
ào
ạt
##/198
##aira
##arro
##asin
##chưa
##rano
##shin
##sten
##uata
1.8
3-0
Bop
Jai
Lầu
Maf
Oec
Ong
Oon
Thú
Tảo
alt
cau
trọ
##Camus
##Conte
##South
##agawa
##asser
##icula
##igata
##iodes
##ngers
##ophys
Bagh
Chad
Chop
Grig
Gryf
Jiho
Pyth
Tịch
bống
curv
fasc
nhức
phốt
##apolis
##inique
Herod
Indig
Karen
Minsk
##ontaine
##ostemon
12.000
Dallas
Dmitri
Hesper
Ingrid
Silver
Festuca
Quercus
Shimizu
Aspidium
Antiochos
Phalacridae
##Bảo
##Men
##Mùa
##Rev
##oir
EC
Xí
##chon
##ecom
##ersh
##etsk
##onyx
##oupe
##quis
##umen
##ushu
##đánh
##–200
32.
Bút
Bộc
Ech
Fut
Ily
Ner
Trữ
Tup
Yoz
act
arm
lợp
sắn
##ities
##oclad
Aman
Cres
Dave
Drac
Marl
Mnet
Sống
Đẳng
##ognath
##permum
##ubishi
Calyp
ngoặc
trunc
##ackDown
##icaulis
60.000
Alderw
Diplaz
Emilia
Foster
Kraków
Record
Spruce
Viktor
Weekly
violin
##Stephani
##Xysticus
##enbergia
Antigon
Forster
Hanover
Kosterm
steroid
Botswana
Lorraine
Hiroshima
Pterophoridae
##1/
##HĐ
##Hab
##Syn
##lio
##ngo
##oue
##ğlu
3"
HP
NA
##-100
##Lamp
##Time
##acum
##adia
##ages
##alon
##fect
##guez
##lera
##phản
##quet
##rana
##shan
##unus
##uson
40.
Gav
Imp
Jas
Lic
Mia
NBC
Pam
Phí
est
ghề
gầy
lẩn
mâm
mẫn
vẩy
##1.000
##Mahon
##aceum
##atoes
##bilis
##ustus
Amur
Apoc
Bali
Erig
Faso
Grey
Humb
Moss
Plus
Publ
Rama
Trog
caud
##ftinck
##irchen
##ission
##ushiro
7.000
Akira
Carlo
König
Mecca
Seung
Thoát
Volga
franc
macul
##assanid
Butler
Hautes
Nomada
Pyrros
States
Wagner
Yozgat
ferrug
##anahalli
##ophthalm
Burkina
Cuatrec
Edwards
Laurent
LeConte
Maxwell
Guinness
Leonardo
Diplazium
Lieftinck
Sphecidae
Yorkshire
Enicospilus
Saxifragaceae
##Eu
##OR
##Tu
##rı
##vị
##Des
##Hàn
##Sav
##eod
##hna
##lay
##nan
##oal
##orc
##osi
##đến
Ez
hủ
lợ
##Berg
##What
##başı
##iche
##ichy
##mang
##then
##trum
(2,
206
215
54%
750
Eum
Hep
IGN
Jen
Vig
den
nêm
##Blume
##Stand
##aught
##ellii
##elmis
##encer
##eyasu
##oloma
##orius
##raman
Bost
Dres
Note
Pomp
Truy
Trắc
Ueda
doãn
lười
nách
xiên
##ocalyx
##ríguez
##tachya
1910,
Felix
Islam
Pasha
Verde
Works
hyper
thặng
thừng
##iflorus
##otarsus
Calcio
Genova
Herzog
Holmes
Polyst
Crystal
Trachel
insulin
Stanford
californ
##opsidaceae
Grouvelle
Institute
Rodríguez
Wrestling
Ramanagara
Tillandsia
Lepidoziaceae
##Gh
##IF
##Tư
##lk
##yō
##õa
##-27
##Der
##awk
##jer
##lem
##nem
##nor
##rya
##trị
##uza
##yun
GP
Gw
Hô
MB
mụ
##four
##olfe
##undo
65%
Ace
Cổn
Enc
Kiy
Ono
Pho
Phả
Pog
Puy
chù
nic
nòi
rớt
xốp
độn
##/2015
##Hoffm
##dives
##hiyah
##ocamp
1200
Chor
Euph
Gunn
Kind
Like
Ngọn
Perc
Shog
Test
band
bazơ
elip
nhái
port
thèm
##/2016,
##estris
##ignata
##neumon
##ynidae
(1989
8.000
Again
Bosna
Court
Heavy
Quyến
Stock
Wells
[...]
phanh
phông
their
##esearch
Angkor
Battle
Hieron
Uhmann
Vosges
Bavaria
Collect
Eritrea
Kenneth
Leipzig
Malatya
Olivier
Sénégal
##orhynchus
Atlantic
Dortmund
Gonomyia
Manstein
Mountain
Pandanus
Francesco
Mitsubishi
Grimmiaceae
Bartramiaceae
Cosmopterigidae
##Ai
##iw
с
##Hen
##acr
##apo
##iox
##uns
##vit
##–16
NP
Tō
##aler
##ecki
##ofen
##oldt
##orno
##otea
##oten
##quân
##ygia
2.2
4.0
ARN
Lea
Led
McD
Nep
Nửa
Tav
Tru
Vie
key
las
lạy
rìu
##atica
##attus
##awitz
##ignat
##ingia
##resun
(194
1860
Ağrı
Bamb
Boss
Cogn
Djok
Elli
Flav
Hoặc
Khóa
Mond
Oslo
Sull
ngốc
vers
##ffield
1980)
Glyph
Pablo
Triệt
Yamag
begin
khuấy
##Johnson
##landers
##orensis
Galium
Hudson
Khoáng
Koppal
Mimosa
Quebec
Rogers
Rovers
Tyrann
Century
Giresun
Journal
Perdita
Taliban
##ichneumon
Djokovic
Maldives
Southern
Tomatoes
Armstrong
Meliaceae
Dictynidae
##Bà
##Lê
##Na
##Oh
##Wu
##üt
##Dân
##Hai
##Khu
##cây
##dağ
##iei
##–20
1;
Rz
Tỵ
##ende
##endi
##idon
##ists
##phar
##phat
##text
1.7
3-1
747
Bok
Eff
Eis
Eus
FBI
Gyn
Mâu
Wit
Zhu
băm
cúi
mao
nat
tib
tru
Đập
##Louis
##Queen
##aburi
##anthe
##iatum
##ocosa
##recht
##unaga
##ussia
##ychus
1800
Dùng
Luna
Mini
Mith
Omar
Pant
Ural
lact
mượt
mọng
sòng
sưởi
this
thắn
tịnh
##Arthur
##iforme
##omerus
##urdack
Devon
Drake
Major
Phnom
##ocnemis
##onensis
Rudolf
Torres
engine
##building
Antalya
Trabzon
Trotsky
simplex
Cousinia
Mercedes
Mohammad
Mohammed
Polynesia
##%)
##áv
##hig
##hop
##taw
##vua
##văn
1–
2;
3)
Bè
Lh
mó
Ẩn
##-44,
##argo
##ioid
##ipur
##itta
##uric
11;
225
57,
Aiz
Fav
Kuz
Mix
Nes
Raz
Tục
líu
vữa
Đầm
##Lindl
##Phong
##adion
##atoma
##eline
##iland
##incan
##nberg
##nhiều
##ocene
##ophry
##order
1909
Adıy
Bess
Core
Hiên
Inca
Mahm
Most
Neph
Want
chét
liêm
văng
điếu
##akkale
##comune
##ophloe
##ophrys
##orning
##osorus
Beaut
Bloom
Brest
Danny
Distr
Macqu
Manag
Schum
Tyler
Valer
ciner
minut
varia
Advent
Medina
Müller
Naples
Observ
Palace
brasil
Bergamo
Station
Abdullah
Dioscore
Eleuther
Lockheed
Michelle
Watanabe
australis
##;"
##HD
##Tứ
##fo
##üy
##ет
##ẳm
Ó
##Cho
##Dia
##Les
##Mas
##Tất
##abl
##hae
##say
##tất
AG
HE
HQ
QĐ
##Brit
##Life
##Nhạc
##adan
##ante
##axis
##bane
##book
##chus
##etch
##icks
##iram
##irol
##isto
##omma
##opod
##trái
##uatu
##đông
(22
Dud
Dul
Dẫn
Hig
Hin
Kov
WHO
bon
bói
huệ
imm
les
los
ver
war
Đạc
##Music
##Saône
##iston
##oszcz
1899
Burn
Dest
Estr
Gaon
Hanh
Helm
Kall
Kand
Khám
Muốn
Móng
Peng
Tarn
Truk
frag
giễu
ngất
rhod
thom
trút
xách
Đấng
##ionale
##riesea
##trường
1821.
1998)
Asian
Basel
Conus
Griff
Logan
Ngạch
Ocean
Paral
Saône
Spiel
Voron
chằng
nhung
phích
##itridae
##ostomum
Felipe
Harvey
Nieder
microc
stream
##anthemum
Bermuda
Cerithi
Youtube
console
##ternative
Adıyaman
Crawford
liveshow
Amblysteg
Centaurea
Cyrtandra
Jihočeský
Sunderland
Scandinavia
Hemerobiidae
##4/
##Ak
##Ge
##VI
##ís
##tai
##thủ
##–13
Bf
Lũ
Tz
YG
##-192
##Hedw
##Viet
##atic
##ecil
##enau
##izer
##ours
##oust
##phải
##raga
##undy
##ypta
##ńsko
14%
45,
Atl
Gem
Hub
Hul
Iwo
Jub
Pus
RAF
Sov
Syl
Yeş
lob
neg
sap
ăng
##9.000
##Album
##Chase
##aniel
##araoh
##eltis
##istor
##maraş
##oniac
##owice
##rapha
1903
Draw
Elbe
Fame
Heli
Khôn
Laem
Lily
Mãng
Sara
Shad
Trib
chợt
dang
hard
miệt
ngạt
quai
quầy
##eograd
##kovsky
##oideae
##phương
1823.
Doubs
Hagen
Linda
Nagas
Sabah
Samar
Surin
Warri
strig
##chester
##ensburg
Campyl
Edmund
Murphy
Sergei
Visual
Zimmer
lympho
Demetri
Olympia
Pacific
glucose
Kahraman
Morawitz
Standard
##International
Kahramanmaraş
##)-
##Cu
##Hồ
##TL
##iu
##ев
##ль
##"")
##","
##:""
##Gro
##Mer
##Mos
##dis
##dur
##eba
##ety
##kyl
##nic
##zat
##địa
cộ
il
##borg
##imet
##inde
##ippe
##oble
##ztyn
06°
209
50.
Chử
Cáo
Kof
Kạn
Tog
Vừa
dẹt
kan
lặc
xăm
##...),
##ahara
##antom
##etown
##olone
(176
1901
Amen
Cron
Hull
Khao
Köln
Prof
Rash
Rein
Riss
Ryuk
Wien
brom
calc
laev
ngậm
pent
##Wilson
##ahisar
##ehogne
##enthes
##icaria
##imbart
##omidae
1803.
Adobe
Assam
Messi
Natri
Paste
Rhode
Schne
Stutt
Thani
Troia
Weiss
##aenidae
##anthium
##odiazep
Ciidae
Eugene
Helena
Khrush
Knight
Shield
Sophie
toment
##angensis
Fasciol
Gujarat
Kannada
Knowles
Lombard
Satoshi
Systems
Vanuatu
Alliance
Vernonia
##background
Debehogne
Henderson
Hideyoshi
Princeton
Elatostema
Kyrgyzstan
Richardson
Armadillidae
Rhododendron
##')
##><
##EL
##PI
##Si
##TM
##Ul
##wn
##zü
##ós
##độ
Ế
##Chu
##IAA
##Maz
##Nga
##agg
##ifa
##shu
AA
EF
MA
Zo
sá
##"></
##HĐBT
##Torr
##acha
##asim
##atre
##esii
##hira
##ický
##illi
##ilob
##okai
##tăng
(40
35.
Ced
Dat
Gồm
Hew
Jal
Sle
Tao
arc
eth
ngừ
vỉa
Đom
Đặt
##Harry
##ainte
##amond
##ereus
##ified
##olith
##orial
##oyama
(175
Amor
Bolu
Cena
Conf
Drag
Maha
McCl
Mons
Oran
Rudy
Rượu
Schm
lóng
nhám
nhờn
pept
##elotes
##onnell
##ytodes
1805.
1818.
Craig
Diana
Short
Storm
Thess
glauc
light
Amiens
Ieyasu
Latrid
splend
##oucester
Beograd
Springs
samurai
##imaculata
##umberland
Erzincan
Independ
Alexandra
Gorbachev
Çanakkale
Clubionidae
Shipbuilding
##dh
##tổ
##–9
β
##11.
##199
##Hay
##Miq
##lec
##ogy
##oti
##ouz
##đảo
Gỗ
vế
##AFTA
##anne
##auge
##edus
##itsa
##lové
##mans
##nier
##untu
(23
(4,
54,
Dad
Krá
Mát
Roe
bip
bổn
câm
gel
pet
sấy
tuý
Đản
##/2005
##Germa
##asgow
##austa
##ittee
##itzer
##lando
##ovela
##rista
##ucker
1895
Amas
Cult
Dord
Emer
Goku
Hers
Nair
Prog
Quái
Send
Seth
Vend
cell
giặt
palm
rặng
virg
Đích
##atsuki
##emaker
1817.
1908,
Crime
Hirtz
Ligue
Lythr
Vista
model
remix
thoạt
titan
##Germain
##osticta
Bailey
Chiềng
Desmid
Gagnep
Paraná
Tobago
##omitrium
Galileo
Glasgow
Kushiro
Simpson
Trichon
similis
uranium
Normandy
Sassanid
Wolfgang
Régimbart
Stuttgart
Meteoriaceae
Dioscoreaceae
Fasciolariidae
##"/
##++
##1-
##Er
##xa
##ны
А
К
##Aug
##Tạp
##ahr
##aik
##bas
##del
##eco
##eke
##fre
##ión
##kat
##kyi
##lès
##lần
##rak
##rog
BC
Bj
Bö
hé
sỉ
##/100
##Prov
##Thụy
##aida
##ande
##chất
##enae
##enev
##ffen
##geme
##icap
##ière
##obin
##odom
##oser
##rien
##roit
##tric
##west
##ysia
2,8
340
Già
Góc
Mạn
Sut
Toh
Whe
Woo
dil
dop
kền
mot
wil
##/2010
##Hampe
##Tháng
##lectr
##obile
##otata
##rique
1902
Bing
Cypr
Ferm
Kate
Kirk
Loir
Màng
Nago
Nott
Ordu
Pang
Phae
Stur
Turn
Zamb
cháo
gall
guốc
nhút
obli
team
vâng
##emisia
##otheca
##uction
##weight
##ymouth
1819.
Anglo
Aston
Hindi
Jonas
Leeds
Lloyd
Nefer
Paolo
Ratch
Soyuz
Thuấn
niken
##idiidae
##imation
18-24,
25-44,
Crotal
Khuyến
Madhya
Marian
People
Rotten
Server
Wilton
aurant
online
150.000
Agrotis
Alexios
Château
Cyperus
Joachim
Kharkov
Králové
Netflix
Roberto
Winston
pallida
Cornwall
Erythrox
Philipin
Platnick
Richmond
occident
Lythraceae
Southampton
Desmidiaceae
Plagiochilaceae
##Ev
##To
##uw
##Ast
##Bal
##Ser
##bet
##iru
##vas
Dê
LP
Zü
mủ
ps
##>"</
##Gold
##Just
##ahar
##aste
##eppe
##lech
##ngen
##nold
##oyan
##thon
##tiểu
(5,
3-4
BTS
Cod
Fry
Lãm
Nod
Nog
Nạn
Pau
SAR
Six
Suy
Yếu
bai
cầy
dur
dùi
eur
fum
hót
mụn
tao
##Young
##align
##amang
##ectin
##osome
##ycter
46%.
Bapt
Beta
Dnie
Fitz
Roon
Smil
amer
char
chải
frig
hiên
nhầy
trip
ôxít
##Prince
##ashima
##elling
##gsater
##obasis
Actin
Brock
Chick
Dolin
Edgar
Kursk
Orton
Party
Rocky
Sweet
Thỉnh
Woman
centr
Hughes
Macrom
Marcos
##othecium
400.000
Baroque
montana
trailer
Aircraft
Barbados
Montreal
Plymouth
Crotalaria
Indigofera
Bostrichidae
Cardiophorus
##NC
##Nó
##Số
##nữ
##Art
##Nes
##Pyr
##Reg
##eny
##hua
##num
##yat
##zığ
CR
Cồ
PT
TR
##Rchb
##Rock
##aeda
##angi
##atea
##core
##dịch
##enty
##ezia
##gate
##izza
##loại
##ocia
##oise
##olom
##onii
##seng
##âzığ
96,
Age
Bồn
Fan
HCM
Hãy
MHz
RAM
Tra
Trù
hèn
vặn
##arsis
##emens
##inder
##iphon
##phong
##rench
##ushin
Dhar
Five
Flem
Hoch
Jedi
Lars
Lòng
Nhàn
Ring
Uran
demo
ochr
plan
prog
##Pierre
##Tetrag
##chenko
1866,
1898,
Giorg
Mason
Meuse
Norte
Yonne
crist
della
telen
##chelles
##unculus
Elâzığ
Hercul
Kaneda
Legend
Tehran
##iculatum
##ostachys
Clement
grandis
Guardian
Hilliard
Hágsater
Aristotle
Oonopidae
##Tetragnatha
Strabomant
##("
##2-
##DM
##QG
##WA
##sử
##xu
ồ
##-84
##12.
##Học
##anu
##dia
##fly
##hei
##odn
##tàu
##ệch
DB
LH
Sê
cừ
pô
xê
##Paul
##Tính
##abat
##agal
##bank
##ehne
##inem
##lett
##ocqu
##onor
##otos
##spur
##unge
##ymen
35%
52,
Abe
Aet
Aks
Dow
EXO
Hye
Jet
Lox
Nun
Pip
Sex
Tìm
Vau
Vàm
blu
dub
giỗ
hẻo
sar
tab
xúi
Çay
##alkot
##apter
##archa
##artes
##chnya
##chúng
##innat
##ophos
1850
Acin
Fuku
Herr
Jump
Kosz
Lane
Mari
Mori
Phán
Sass
TNCD
Take
Wong
anth
carb
cont
lung
tuộc
Đĩnh
##amanca
##ascens
##ilinea
##methyl
##utidae
1788.
1981)
1983)
Adana
Aulac
Bunge
Flash
Huyên
Never
Sinop
debut
khoát
##ynaceae
Andrei
Castle
Doctor
Harper
Nation
Penang
Silvan
Single
formos
Araneus
Caracas
Jutland
Bagalkot
Catocala
Columbus
Ferguson
Flanders
Kingston
Strabomantidae
##VB
##WS
##üm
##ер
##Ấn
「
##Air
##Dor
##Oxy
##ayn
##bên
##evi
##her
##vor
##-130
##bull
##eves
##ffer
##fire
##gers
##ieve
##ipio
##itia
##izon
##oppa
##stis
##thức
16%
Kuk
Loe
Pix
Roh
Ryd
Tap
Viz
niv
nạo
sup
tào
Đam
##/2012
##Princ
##adian
##essen
##estro
##iloba
##trino
1880
200,
Bors
Finn
Germ
Gibb
Kiền
Kızı
Magu
Nang
Nùng
Owen
Phồn
Saud
Schr
Tart
Togo
Tsuk
Work
Yuki
crom
cồng
host
lượm
nhọc
phàm
subc
##chwitz
##ternus
##urskie
1820.
1867,
1871,
Argyr
Bella
Chống
Chồng
Hoảng
Kyung
Morav
Musta
Param
Stras
Touch
bazan
Bremen
Clarke
Micron
Nagoya
Planch
granit
điôxít
##Anderson
##ophyllus
##opolitan
250.000
Scythia
##ophonotus
Berberis
Brisbane
Brussels
Calabria
Chechnya
European
Hexatoma
##odontaceae
Antigonos
Sheffield
Shoemaker
Buccinidae
Latridiidae
Plagiochila
Polystichum
Thuidiaceae
##");
##acı
##ahi
##bài
##hợp
##nov
##obu
##pel
##ğan
##şak
##–14
HS
MG
SG
Vở
##City
##Sinh
##Wall
##acık
##aide
##alam
##audi
##ecus
##iese
##kare
##rika
##ules
##umba
##ález
380
58,
6,5
80,
Dải
Lok
Nit
Rak
Syb
Tội
UAE
Uẩn
Wad
Wis
asp
hùm
its
ton
trứ
Ống
##/2009
##aware
##ettia
##iffel
##ipter
##leigh
##ottis
##stone
(185
Ambr
Bech
Como
Gius
Kuch
Pycn
Suff
Trag
Wiel
bênh
into
taxi
wood
Đóng
đoái
##olabis
##opelma
Gaara
Hemsl
Isère
Jules
Khuổi
Kishi
Money
Nexus
Presl
Robot
Selen
Stern
Trứng
Vichy
##ination
##omalaya
##ostemma
Beatty
Hubble
Nghiêu
Rumani
Stefan
Werner
Władys
Zürich
longip
Andaman
Concert
Crimean
Hotspur
Cromwell
##thyphantes
Boulenger
Dioscorea
Indomalaya
angustifolia
Sphaeromatidae
##.1
##Ah
##Il
##Ke
##го
в
##/01
##Die
##Kar
##jah
##kie
##liu
##nga
##quá
##riz
##ror
GM
Km
PK
mú
rà
rủ
sk
vs
##Card
##Game
##Hier
##Jeff
##Minh
##ardt
##born
##hane
##oduc
##rite
##tham
##árez
47,
55,
CNN
Cés
Kre
Nại
Osh
Shu
Vẫn
Zak
cit
fem
fer
mít
nhổ
out
pod
sat
##/2018
##amesh
##berra
##entry
##ihara
##ikkim
##ogyne
##opyga
##under
(100
Both
Cash
Hatt
Hawk
Kali
Knox
Munn
Need
Nhảy
Nice
Penh
Saar
Shiz
Vượt
dich
fact
kiệu
mand
marm
pygm
trif
trầu
xiếc
##ishima
1886,
Aleur
Anast
Graph
Keith
Scirt
Thong
Venus
organ
##Dysdera
##olobium
##ophanes
##ucation
##ulation
Anypha
Dublin
Eiffel
Eilema
Marina
Phraya
Rivera
Scrapt
Second
Country
Rainbow
robusta
Morrison
Ochnaceae
Scirtidae
Władysław
Konstantin
Seychelles
Development
Selaginellaceae
##Kẻ
##°.
##đô
##ен
##-2.
##-72
##Bip
##RNA
##Raw
##Ren
##Với
##azu
##ibr
##jon
##ogi
##rax
##đây
##–12
CV
TF
ke
##40),
##Viện
##aber
##abia
##cair
##cker
##czyn
##escu
##garh
##hidi
##isne
##ktop
##ocha
##olit
##ombo
##omes
##onga
##tsin
##utta
##üyük
95%
API
Deg
Esk
Hoh
Neb
Oth
ctv
dia
fam
lae
liu
nôi
rán
sụn
##ectes
##entia
##ocoma
##ombat
##oriac
##phria
##riana
##ripes
##ulina
(188
Chae
Euch
Face
Hack
Kass
Kats
Kiel
Kuhn
Liễn
Menz
Nara
Ngột
Pack
Patt
Pill
Read
Salt
Wake
area
down
umbr
xoài
##Christ
##Little
##olobus
##taphyl
##ulosus
1758.
1775.
1800.
1906,
Achae
Alain
Deniz
Duyện
Idaho
Kabul
Khuôn
Nakai
Thiêm
Crepid
Julian
Khuyển
Marant
Porter
Truman
##ariensis
Antoine
Borhidi
Concord
Ermisch
Lundell
Dordogne
Isabella
Koszalin
Leucania
Princess
Sardinia
##Lampyridae
Goldblatt
Spilosoma
##Atlantiques
Schefflera
Television
Tortricinae
Amblystegiaceae
##IG
##Vì
##bà
##éa
##íc
##-28
##Huế
##Lat
##Mag
##Pok
##alg
##but
##dar
##idu
##kha
##tax
##udo
KV
VP
sỡ
vồ
##Giáo
##Lund
##anov
##aume
##dafi
##ebra
##elec
##empl
##obot
##tawa
##view
##ynia
208
256
36.
49,
5,5
Buz
Côm
Eva
Mei
Oda
bak
cop
cặn
dật
lóc
lốp
mẩu
tấp
##Thánh
##agara
##ollah
##orhoe
Becc
Bend
Deep
Dunn
Elis
Holm
Kays
Naka
Psil
Side
dong
proc
thor
vest
##Nguyên
##Turner
##imilis
##itaria
Elena
Hybos
Ischn
Johor
Josef
Karak
Khoát
Lucia
Megap
Oedem
Osman
Plata
Raven
Stapf
Today
Yahoo
first
nigra
##otaceae
Aderus
Campan
Kaiser
Kerala
Kimoto
Louvre
Mersin
Mother
Roland
##ilineata
Bijapur
Cabrera
Corinth
Granada
Spencer
Warncke
amoniac
cricket
Phillips
MacArthur
Monolepta
Spielberg
Theridion
Marantaceae
Observatory
Selaginella
##AB
##AV
##DR
##IX
##jp
##rê
##11)
##:30
##Cas
##Max
##ebb
##edr
##ivi
##lai
##tei
đò
##chio
##erts
##etat
##fica
##hang
##hein
##ihla
##jord
##nith
##pard
##sium
##tình
##uste
##yama
##ycer
(1)
17%
330
53,
58.
767
Bào
Lus
Lyg
Río
Vực
gấm
gập
lab
lún
mấu
xộn
##Marie
##adiol
##ascia
##astes
##ensch
##ische
##ource
##owiec
##ropus
##warts
##ympic
1896
Aesh
Aram
Bauh
Dais
Days
Dumb
Fell
Khản
Pell
Rush
Sond
Vold
chửi
gièm
giấm
khoe
nhạo
vồng
##ancock
##eotide
##hausen
##ichrys
##ignano
##schild
(1987
1812.
Block
Chalc
Const
Grove
Huyết
Percy
Scapa
Scler
gigan
##aculata
##arensis
##ference
##opodium
##osphate
##ridates
##rifolia
Dalton
Dwight
Eccell
Econom
Maggie
Pardub
Secret
##ochromis
Dresden
Hopkins
Messina
Monster
Phantom
Senegal
philipp
##ckenaeria
##utellaria
Ctenidae
Nagasaki
Juncaceae
Eccellenza
Laemophloe
intermedia
##)|
##Cơ
##EO
##cũ
##dù
##ли
##Bel
##Del
##ité
##law
##mùa
##oet
##osu
##rae
##rel
##tex
##udi
##vae
2%
BO
Hỷ
Lü
RS
Sö
VH
##High
##Vòng
##anea
##bold
##ecik
##inen
##lang
##lãnh
##miền
##ovii
##phen
##phút
##ucha
##định
(26
0,4
204
207
219
34.
Cub
Cul
Dup
Fly
Int
Koh
OVA
Pim
Sop
Teg
dom
dos
hắc
mas
muc
nom
rel
sel
xoá
Đới
##/2019
##Aleur
##Heart
##adura
##angan
##ansen
##ature
##istes
##mouth
##odina
##ronic
1871
Agap
Aloe
Arth
Cold
Coon
Cyan
Diad
Gaza
Hươu
ICAO
Khun
List
Loth
Lour
Niệm
René
Sakh
Shik
asen
bưởi
gừng
khắt
sylv
thán
thây
đấng
##anning
##eopsis
##ophone
(1978
(1988
1.800
Afric
After
Arrow
Craib
Dacia
Hoạch
Hwang
Janet
Karab
Klein
Turin
sound
##Oxyopes
##aterina
##avarman
##obacter
Amasya
Apamea
Barack
Matsum
Monica
Ryukyu
Sophia
dioxit
triang
##esterone
Fischer
Olsztyn
Pitcair
Sakarya
Yeltsin
Athyrium
Giuseppe
Mordella
Nobunaga
##chtenstein
Bopyridae
Oxytropis
Salamanca
Apocynaceae
Kaliningrad
##CB
##Fre
##Haw
##Lin
##MAX
##Pro
##Rep
##aks
##cin
##lim
##mea
##thi
##zab
##zeg
sw
vv
##Hall
##Phim
##Phần
##Port
##anan
##eaux
##erti
##hoàn
##icat
##iola
##outi
##ping
##sson
##thys
##usse
##ween
(21
(27
3.5
43,
Buf
Luk
Pes
Poh
Was
Yor
bec
bừa
chà
mốt
sạc
sẹo
Ðại
##Burtt
##CACAF
##abris
##andro
##assin
##illia
##ineus
##nidae
##ograd
##unity
##ético
1897
Amaz
Chem
Càng
Dalm
Oreo
Snow
Torr
cris
kheo
ngửa
soul
##astern
##toneta
(1981
1822.
1862,
Byrrh
Chuỗi
Comic
Pavel
Psitt
Tchad
integ
##rington
80.000
Patric
Sevilla
Anatolia
Computer
Helsinki
Hogwarts
japonica
##Philodromus
Acinodendron
Coniopterygidae
##CR
##Sk
##Sử
##Vũ
##_6
##än
##ış
##Din
##bảo
##kai
##nằm
##oct
##okh
##oxa
Cỡ
eb
##Ever
##Nhóm
##aema
##anta
##arda
##bình
##coni
##elyn
##enin
##iber
##igin
##isca
##làng
##olon
##ylic
##ysis
##édon
"[[
37.
70,
Biz
Düz
Fig
GNU
Mất
Naj
Nấm
Sci
Tet
Trả
Wei
Yaz
Yin
fre
mer
umb
##/2014
##Boiss
##ardii
##ifica
##olina
##phant
##uncan
(189
1884
Coss
Dana
Emil
Holl
Mumb
Nhãn
Nuôi
Rize
Sapp
Webb
acum
chửa
hách
sand
trop
uyên
vược
##anthum
##hydrox
##ocaine
##opolis
##otidae
##upiter
##villea
##édonie
1978)
1979)
Barth
Cohen
César
Eagle
Ecnom
Johan
Potam
Ultra
lipid
raion
##ittatus
Angela
Arachn
Celtic
Marion
Nathan
Planck
Sicily
Triana
Triple
Vasily
hydroc
##oleaceae
Bryansk
Cresson
Freedom
Krishna
Pardosa
Réunion
##odromidae
Suriname
neutrino
Kobayashi
##iracanthium
Gloucester
Mithridates
Scutellaria
Lindsaeaceae
Philodromidae
##-"
##HA
##PP
##Ps
##Tự
##lt
##°,
##ệp
и
##NET
##Sar
##aeg
##aye
##bot
##cas
##dır
##fox
##hel
##hof
##ieh
##jet
##kut
##lớp
##nói
##ocy
##tác
##yad
##đạt
##”".
3%
Ao
Aş
Fy
pe
uý
##Back
##Việc
##acio
##acon
##amen
##egna
##htar
##idan
##ifax
##inic
##nell
##ombe
##opec
##razy
##rell
##stag
##unya
(""
39.
51,
85%
Blü
Cột
Hài
MIT
Muş
Mạt
Nef
Nim
Num
Tia
Xia
Xin
bel
kén
súp
sặc
tet
trĩ
xâu
##/2008
##Titan
##akhan
##arbon
##atoda
##entum
##estra
##inski
##lehem
##thiết
##watch
1894
Chat
Cond
Jazz
Muối
Nect
Pete
Ramb
Reed
back
circ
cort
orth
##/2014,
##agonia
##icanus
##olaena
(1992
1975)
Afyon
Aneur
Hotel
Korea
Thamn
Train
Wanda
boong
##ulifera
Ascala
Bishop
Europe
Fisher
Lisbon
Marino
Nippon
Sukhoi
Toledo
varieg
##ognathus
Capital
Cirsium
Friends
Nahiyah
Sánchez
Village
Agrypnus
CONCACAF
Mindanao
##ocarpaceae
Bethlehem
Oxyopidae
pubescens
Alessandria
Oedemeridae
Trichomanes
Liechtenstein
##1"
##>*
##Fi
##-3,
##-86
##Cái
##Hal
##Ngũ
##Pan
##ego
##eya
##hội
##jar
##oso
##ulo
##uña
##xas
HK
Mễ
NX
PH
PR
Tê
Tộ
Ẩm
##Brid
##Jean
##Thủy
##abus
##alda
##band
##dere
##lich
##olid
##phyr
##ppen
##ukan
(31
10;
Gạo
Jab
Kri
Nir
Phá
Sit
Sod
Taş
Tro
bún
das
hốt
lay
mul
răn
spp
sán
vin
##North
##Paris
##abrus
##antan
##audin
##bital
##ovico
1886
6–3,
Cebu
Esch
Hash
Nach
Phas
Stor
cass
chỏm
cren
diêm
high
punk
quýt
terr
##/2019,
##Kaiser
##Martin
##apatna
##icauda
##ioneta
##izidae
##ochloa
##ochlor
1889,
1982)
Acroc
Films
Hatay
Human
Imper
Khuất
Minaj
Moses
Quest
Vocal
Watts
boliv
major
nucle
parad
##Escobar
##Jeffrey
##ellatus
Carmen
Davies
Dniepr
Dysder
Fyodor
Leslie
Margin
Roewer
Sasebo
Thuyên
Wander
Wester
Zamora
acetyl
divers
florua
polyme
##ionaceae
Barrett
Conquer
Diamond
Giorgio
Kampong
Liberty
Lupinus
Nairobi
Orlando
Polemon
Wurdack
##Rubiaceae
##karahisar
Children
Johnston
##Enterprise
Challenge
Demetrios
SmackDown
Aneuraceae
Columbidae
Lycaenidae
Hybosoridae
Constantinus
Afyonkarahisar
##MO
##Ru
##Ts
##ký
##qi
##ré
ả
##Chỉ
##EEE
##Hot
##Lưu
##Thi
##deb
##eyi
##fur
##gas
##ibu
##kab
##õng
##ğla
Fa
gờ
##Oliv
##Sheh
##acks
##area
##aval
##elas
##elos
##erty
##imov
##inek
##mare
##mina
##unga
##usen
(6,
48°
7,5
Beh
Bez
Bạo
Eut
Gin
JMA
McV
Mok
Vij
Xưa
Yer
Yển
Zar
gas
gót
ill
##Conus
##Dream
##König
##iosus
##ioxys
##manni
##menes
##unter
1848
Alep
Daph
Rhiz
Spin
Sảng
khảm
pter
term
thẳm
vụng
yunn
##/2018,
##atsuma
##elleri
##iridae
##mińsko
##oyager
##solini
(1870
Adele
Adria
Barca
Betty
Demon
Emily
Giàng
Luông
Parma
Tesla
Trảng
Urata
Virus
Youth
https
##auridae
##issimum
Eminem
Gaulle
Sainte
Saturn
brevis
nhoáng
sultan
##odontium
##ostegium
##othallis
Aquifol
Baghdad
Eleanor
Franche
Halifax
Miranda
Ossetia
Saladin
##Mazurskie
Plzeňský
Research
longipes
maculata
##ohyphantes
Warmińsko
Strasbourg
Technology
telenovela
Hercegovina
benzodiazep
occidentalis
Aquifoliaceae
##Họ
##Up
##aç
##mẹ
##qa
##ws
##Áo
##ĐV
##10)
##Süd
##hen
##kia
##ryū
##tọa
##yum
1"
IL
aw
sl
ắt
##Bank
##Blue
##Ninh
##abol
##andt
##buri
##diễn
##enca
##enze
##ococ
##omic
##onny
##orra
##osth
##otho
##ould
##riam
##urst
##điện
##–201
13;
2,4
310
365
4.5
440
Bén
Cis
Cồn
Dọc
Ect
Gür
Gặp
Koc
Soo
cre
ker
leg
lin
nor
nud
nạc
sit
who
Đẩu
đụn
##achis
##andia
##arpus
##awesi
##falen
##inium
##ontin
##oplus
##quyền
##sonia
##trans
##urata
##urday
##urina
##érica
Anac
Bash
Brug
Celt
Cleo
Clev
Cors
Dahl
Gund
Ivie
Jacq
João
Kafr
Khất
Kyle
Lach
Lena
Lính
Must
Neck
Neil
Neum
Phẫu
Pret
Sens
Serb
Trầm
Tsun
Wlad
chốc
dẳng
mbar
nhím
phớt
ôliu
##aticus
##ismund
##itrium
##mannia
##oxylon
1798.
1885,
Baran
Calym
Ducke
Fritz
Miley
Muğla
Olden
Quint
Stade
Steud
Sting
Sưởng
Trách
magiê
micro
##oglossa
Brooke
Burgos
Chamae
Champa
Gazian
Glenea
Monter
Schott
Sheikh
Trigon
cylind
tenuis
##ichrysum
Andrews
Barnard
Catalan
Chaplin
Günther
Kayseri
Sapporo
Caporiac
Clubiona
Delaware
District
McDonald
Auschwitz
Mussolini
Management
coronavirus
Restionaceae
Polytrichaceae
##Fu
##UL
ờ
##Big
##Bạn
##Gal
##Pap
##Tên
##abd
##aim
##amu
##học
##jos
##ozy
##prü
##rek
##tec
(+
BL
BR
MO
PV
Yi
dè
tớ
vạ
##Born
##Chúa
##Gris
##Hành
##aram
##arno
##eous
##omot
##sing
2.9
262
Job
Orm
aqu
bet
dar
dạn
ign
Áng
Çam
Ðức
Đạn
##Nguồn
##amnus
##etiol
##omena
##phyia
##pling
##schul
##trang
1891
1893
6–4,
Agri
Arag
Bard
Elsa
Ilex
Ital
Kars
Palp
Pamp
Phất
Quát
Stef
Tree
byte
lind
nháy
paul
pict
##Chuyện
##action
##brough
1802.
1880,
1903,
1974)
Amata
Annie
BAFTA
Berry
Guign
Ixora
Kunze
Starg
giằng
École
##eppelin
##iermark
##uckland
Antwer
Dipter
Dusona
Gambia
Glypta
Vernon
Yamato
Euphyia
Kraenzl
Maguire
Mandela
Morning
Nielsen
##Calédonie
Atlético
Avengers
Fontaine
Hercules
Michener
capensis
Aeshnidae
Gümüşhane
chinensis
insularis
Caporiacco
Elaeocarpus
Anyphaenidae
Hymenophyllum
Porcellionidae
Ptilodactylidae
##Pe
##_8
##gn
##jk
##kn
##pô
##rs
##sz
##áz
##đo
М
##Cao
##Tai
##jou
##lic
##sui
##udd
##uve
##vật
##wei
AF
Hz
Rõ
Zl
##45),
##Engl
##Lept
##Wood
##atas
##atov
##atte
##aura
##elot
##ened
##iris
##lass
##nius
##okes
##osma
##otov
##rock
##sens
(2)
(32
(50
0,2
1/4
290
43.
Chh
Gna
Hib
Họa
Hới
Ion
Iss
Jör
Lah
Tik
cus
còi
rac
rẫy
trổ
wal
xịt
##Nhiều
##agiri
##bonne
##imaru
##obios
##overy
##quest
(186
Anch
Caen
Crow
Cube
Córd
Gong
Graz
Himm
Howe
IATA
IEEE
Katy
Meth
Miện
Myrt
Mãnh
Olom
Salp
Thér
glut
găng
incl
khấn
ngao
para
prol
scop
subt
sành
teen
##center
##essitt
##idence
##oleuca
1806.
1895,
Athen
Bidar
Ceryl
Chong
Cirol
Gauss
Hampe
Hoang
Infin
Jacqu
Khung
Larry
Phone
Shiva
Staff
Thorn
Thước
Turcz
Tuyệt
Cinema
Extrem
Garcia
Grosso
Hersch
Hipper
Morton
Myster
Verona
chiêng
##acanthus
##amangala
Kakashi
Mohamed
Nikolay
Philosc
Auckland
Borussia
Business
Pterobry
Pyrausta
Sulawesi
Theodore
mexicana
Corydalis
Gaziantep
Lancaster
Rissoidae
##Myrmarachne
Steiermark
madagascar
Pleurothallis
##AA
##px
##zz
##Đô
##⁄2
##150
##19)
##Cam
##Kan
##_10
##eid
##hii
##htt
##juk
##nos
##odz
##ogg
##rim
##set
##ulz
##umn
##yli
##đều
##đội
##ırı
##ŏng
##ườm
--
Ef
GT
Lé
MK
PM
Tp
gồ
si
Đạ
##-300
##>*</
##AIDS
##Nass
##Part
##asar
##châu
##egee
##hạng
##icha
##irut
##olev
##tinh
##umab
##urat
##ycha
##ómez
(28
2,2
2,7
249
737
Hof
Ice
Inf
Joo
Keo
Kes
Loc
Myl
Rok
Rug
Wed
bot
cùi
fin
nub
tủa
vạt
##/2011
##Thunb
##ación
##adium
##endra
##erset
##ilius
##isser
##owska
##phrod
##thiếu
##yllus
1600
1812
Bale
Cháu
Chèo
Este
Hahn
Herb
Hrad
Igor
Kush
Lega
Léon
Macr
SARS
Said
Teen
Wedd
What
aden
chàm
mill
prox
spir
uyển
##ampire
##axacum
##heimer
##idgeon
##oustic
(1977
1968)
Abbas
Aesch
Aisne
Carne
Jesse
Kızıl
Nishi
Olive
Paras
Regel
Reinh
peruv
##Shehbaz
##aiensis
Aleppo
Barnes
Bryant
Choice
Goethe
Lesnar
Maratt
McCain
Mumbai
Nghiễm
Nicole
Ottawa
Pietro
sunfat
Captain
Cryptoc
Denizli
Fukuoka
Pseudoc
##icomorpha
2016-202
Brittany
Humboldt
hydroxit
Cleveland
Descartes
Fernández
Cerylonidae
Ascalaphidae
Konstantinos
##NT
##So
##kw
##ør
##ří
##Bon
##Lit
##Los
##Ray
##Tel
##Thủ
##câu
##cầu
##ezi
##ffy
##isn
##rub
##ulp
##usz
7-
8%
EM
Jä
PO
Đổ
##Bạch
##Châu
##Leon
##NDVN
##andy
##aret
##emin
##ewis
##hàng
##igns
##ingu
##opal
##opia
##skyi
##song
##thor
##ythm
0,1
305
48,
480
56,
98,
Cac
Của
Hwa
Jes
Kou
LED
Lug
Nah
Ory
Oud
Put
Qui
Rig
Tib
Tut
Yết
dan
dev
imp
lụy
mỏm
quẻ
rầm
##/2006
##/2017
##Green
##appus
##court
##emort
##iyama
##jeong
##omera
##ometa
##onius
1885
Abel
Amin
Aver
Bong
Chết
Doll
Evil
Khos
Kish
Lara
Lich
Malv
Pear
Phàm
Sarı
Symb
They
VNCH
chĩa
chắp
diss
dông
gutt
knot
pend
subf
thảy
thọc
##archus
##odytes
1816.
1861,
1970)
2000)
Amenh
Bonif
Genoa
Indre
Leban
Londt
Maker
Thiếp
Three
crypt
fimbr
flash
##commune
##issimus
##ochlora
##ography
##yphylla
Agelen
Darius
Fabian
Falcon
Levant
Lowell
Mekong
Modern
Rabaul
Scipio
Stanis
Ubuntu
Augusta
Benfica
Capitol
Firenze
Himmler
Mikhael
Minogue
Norodom
Rosenst
Tripoli
##ophagidae
Cornelis
Minamoto
Northern
Bufonidae
Catalunya
Sigismund
Agelenidae
Maximilian
Tyrannidae
Helichrysum
##5"
##Bí
##NP
##Os
##QL
##_7
##py
##Đó
##ŏn
П
##"):
##-62
##20)
##Est
##Med
##Sec
##cox
##eau
##gae
##gam
##hoa
##hơn
##mad
##nis
##pil
##rab
##vat
##–10
Bì
SB
##Amph
##Best
##Cách
##Rodr
##aklı
##arba
##avir
##azzo
##eger
##ensa
##iors
##kiểu
##lios
##ngôi
##orod
##pent
##vill
##đóng
0,8
222
46,
60.
ASC
Akç
Caf
Chà
Eub
Hee
Obi
Rim
SCN
Sói
Thy
Thẻ
Yon
bẹp
kin
neb
sed
xao
##estia
##fford
##ipalp
##ithii
##izard
##nhard
##olimn
##rance
"100
(193
1830
Corp
Crim
Cyst
Drew
Gate
Mesa
Mult
Oahu
Olga
Oper
Phor
Pras
Ruby
Scol
Siph
Thal
Wine
Zong
furc
liếm
suff
trau
vert
##arajan
##chuyển
##iences
##inator
##osphor
##ospora
(1986
1850,
1860,
1904,
1976)
Bayer
Besch
Falls
Galer
Ghost
Helin
Hutch
Kazan
Mafia
Micro
Tonga
Yakov
chình
south
##Perrier
##meister
Bartın
Beirut
Bolton
Cordia
Cuenca
Gerald
Gregor
Herman
Kishii
Ritter
Saddam
Schist
Senior
Tanaka
choáng
system
##ainville
##arginata
Andalus
Barbula
Calceol
Chloroc
Delphin
Destiny
Ioannes
Rhaphid
Rollins
Adelaide
Colletes
concerto
elongata
Ammophila
Coelioxys
Ecnomidae
Tetragnatha
##FR
##Hạ
##Ty
##Vô
##kō
##oł
##új
##"("
##-26
##Gil
##Sơn
##anj
##aos
##atu
##eve
##oge
##vik
##Đội
##đạo
##ști
CG
VO
sn
##-190
##Nord
##adar
##ells
##emic
##epus
##eren
##fred
##ftwa
##hrad
##ieng
##igal
##ilon
##itic
##izen
##life
##nghệ
##oles
##onti
##otsk
##rens
##uzzo
##walk
##xuất
(39
0,6
1,7
1,9
18%
211
325
430
Cru
Hộp
IOC
Loz
Lửa
Mái
Nou
Prz
Sik
Soh
pac
sag
sào
trơ
Úst
đái
##Nesom
##akawa
##astra
##olium
##osuke
1892
7000
Benz
Clap
Gogh
Khăn
Nike
Orne
Rhip
Rice
Sark
Thép
Toro
Tụng
Volt
Wahl
fall
frut
neur
serv
##/2017,
##Script
##Yamato
##enbach
##iction
##iliata
##marium
(1996
1901,
1907,
1971)
Aleut
Creta
Drive
Ellis
Elmer
Faroe
Faust
Fidel
Homer
Lower
Randy
Sunda
Ville
Viêng
Worth
glabr
gland
hecta
music
salic
squam
##Pokémon
##Univers
##agaceae
##ersdorf
##ianella
##itarsis
##olensis
(2006)
Cylind
Discol
Hannah
Makoto
argent
corona
second
##National
Bennett
Fayette
Fleisch
Goldman
Machine
Shizuka
Special
Valeton
frigate
Falkland
Nakamura
Warriors
Zeppelin
Amenhotep
Cosmarium
Saxifraga
Schneider
Voldemort
marketing
monticola
Montevideo
Hydropsyche
brasiliensis
Constantinople
##2]
##4-
##ds
##sb
##ла
##–3
##198
##Nor
##Sen
##Tok
##dle
##far
##ket
##lag
##loo
##mai
##oam
##roz
Hỉ
RT
tỵ
ập
##-19.
##Arct
##Ngôi
##Thom
##Vila
##etii
##gaon
##giáo
##heng
##hill
##hiệu
##ilan
##ippo
##ipus
##iser
##isth
##ives
##jara
##occo
##ouin
##rike
##ultz
##umat
##yana
(90
2.3
258
44.
55%
Bov
Leh
Roz
Rùa
Uất
Zur
bos
cội
dầm
fun
loc
mun
nod
năn
orb
pot
sab
##Chang
##abran
##actea
##chống
##graph
##icosa
##illas
##illum
##lebia
##othea
##pidae
##uchus
##world
1888
Alta
Aris
Bron
Cinc
Cocc
Frog
From
Gulf
Haus
Limn
Lồng
Ngõa
Rank
Răng
Sław
Thốc
Tosc
Tric
Unix
Uşak
Wemb
Zone
cune
grad
muội
subs
##Acanth
##Tmarus
##ogeton
##ophyta
1999)
2007)
Budde
Cuneo
Didym
Glass
Gomez
Julie
Leske
Macar
Manus
Martí
Ninja
Plato
Prain
Ridge
Serra
Shane
about
class
##astopol
##comarca
##icaceae
##istrict
##ithorax
##ophanus
Adrian
Burser
Calder
Dennis
Makino
Planet
Prosop
QĐNDVN
Rooney
Selena
Teresa
giương
mangan
##enahalli
##schulsky
Andreas
Batista
Chevrol
Córdoba
Guignot
Lorentz
Ranidae
Wyoming
through
Acalypha
Burgundy
Catarina
Herschel
Kamikaze
Kawasaki
Lodovico
Pridgeon
Valentin
Broadcast
Asteraceae
Collection
Delphinium
Micronesia
Nephrotoma
Silvanidae
Wellington
Burseraceae
Motschulsky
Soricomorpha
##Lo
##])
##Đế
##ко
##太后
##Mur
##Net
##War
##bau
##bro
##igr
##iyo
##oor
##see
##wen
##ńsk
##ướn
(0
NY
TC
Tơ
["
gỉ
##-400
##50),
##60),
##Alex
##Arab
##Glee
##Hill
##Homo
##Jack
##Lang
##Song
##This
##akis
##algo
##arap
##avat
##chat
##holt
##iley
##jong
##lock
##mand
##omyc
##otta
##seph
##èvre
##ébec
212
229
3-2
370
45%
Aff
Ans
Bàu
Coz
Gao
Hỗn
Nhỏ
RPG
Reb
Rex
Soa
Tou
Yay
div
ghẻ
het
maf
mận
nôm
oct
sor
toả
tạt
Đợt
ươm
##/2016
##Besch
##aille
##erruc
##ingii
##istus
##orean
##ostok
##phila
##tress
##ument
##uster
##utoni
(160
Chav
Chua
Cros
Dioc
Duke
Frid
Giul
Gián
Graf
Here
Mega
Ngàn
Nina
Stam
Talk
Tern
Tiếu
Vito
Wied
Zing
bore
chil
lute
lươn
moll
rượt
sess
thốt
Świd
##ancing
##andros
##landia
##odesta
##truyền
##uralis
(1979
(1991
(1995
1804.
1808.
1955)
1965)
About
Bates
Blair
Gómez
Horus
Kirch
Meyer
Nhánh
Nubia
Palae
Pavia
Pedic
Plaza
Rajas
Salis
Scarl
Susan
TPHCM
Varde
Wight
khoét
match
synth
##Deutsch
##imantis
Apache
Chelon
French
Havana
Saigon
Xavier
ballet
mollis
##barangay
##ogomphus
##oprotein
Abraxas
Alfonso
Britney
Gaddafi
Gardner
Lebanon
Perkins
Reynold
depress
obscura
Bungaria
Christie
Erigeron
González
Somerset
Trentino
Copelatus
Taraxacum
Valentine
Buckingham
Casablanca
Cyclosorus
Dysderidae
Xanthorhoe
Constantine
Extremadura
alternative
Pristimantis
Discolomatidae
##BE
##Tổ
##Um
##_9
##vợ
·
##DNA
##Kur
##Sax
##Sim
##Tak
##_12
##cık
##dựa
##lik
##los
##owi
##riy
##tôi
##uyu
##–11
FF
Pf
TW
XL
mĩ
nỏ
oz
‘‘
##-188
##Mass
##Pers
##Xuân
##York
##anas
##ches
##elet
##eyer
##horn
##igra
##ikos
##ilin
##itel
##ková
##lers
##mour
##ngôn
##osit
##otom
##ovit
##plan
##rave
##zewo
##Đảng
(29
2",
2,9
214
227
4-5
420
Bee
Bup
Dou
Guz
Irv
Joy
LAN
MAC
Mưa
Mưu
Nil
QGP
Ruk
WTA
Xer
air
cỏi
deg
gạc
lút
núm
tởm
Ếch
##Craft
##Works
##anova
##athus
##awara
##giers
##icost
##ikere
##imura
##ocket
##ophus
##ospor
##richt
##umaru
Anem
Aven
Cell
Ches
Cong
Dawn
Gond
HĐND
June
Lost
Ngải
Nhạn
Phối
Pots
Rond
Sham
Shia
Sikh
aren
cali
main
mass
petr
prov
rect
Ðông
##/2009,
##/2015,
##agoras
##inctus
##optila
##weiler
1864,
Altai
Aspar
Floyd
Giồng
Gwang
Milne
Pixar
Price
Saxon
Sonic
Viola
drama
##Chicago
##ichthys
##ivision
##ococcus
##urensis
35.000
Adonis
Hadena
Hilton
Public
Rahman
cuspid
insign
##ongensis
##oscyphus
América
Control
Ferrara
Memphis
Russian
Salerno
Wembley
Woodson
pusilla
##abarabran
Macquart
Psychomy
Republic
Salzburg
Voronezh
acoustic
interrup
Wanderers
rufescens
Eragrostis
Sphagnaceae
Aristolochia
Philodendron
Coonabarabran
##.2
##BB
##Ni
##cổ
##pu
##ær
##ỷu
о
大
##-70
##Aba
##Ach
##Dur
##Hem
##Lục
##Meg
##Phú
##TCN
##agl
##gau
##hey
##jpg
##mới
##rua
##tal
##ção
##Địa
##độc
9%
Bù
Mụ
SR
TM
UC
kW
mỳ
##69),
##Benn
##Bách
##Cycl
##Merr
##aill
##bang
##biểu
##jang
##khai
##lenh
##load
##nhất
##oxus
##sung
##ults
##yste
2),
2–1
316
61,
95,
99,
Cou
Cyc
GPS
Ibn
Jav
Ler
Opt
Rup
Tud
ami
aut
bul
cav
gớm
hor
sảo
##Beaut
##Frank
##Irwin
##Trước
##abant
##aumin
##ensky
##ergic
##ettel
##hoàng
##isión
##manii
##ocqué
##olica
##osema
##ourea
##oween
##rigan
##rosia
##uldak
##utina
1866
1889
8000
Baja
Chom
Coff
Eski
Fior
Gene
Grum
Guin
Hast
Huss
ISBN
Junk
Kids
Lass
Mail
Mato
Nutt
Pong
Sims
Tunc
User
chập
dors
limb
soán
sulc
đuốc
đãng
##Standl
##active
##bergia
##ishing
##othrix
##rocław
##timore
##ulosum
1909,
1977)
Asura
Baehr
Bever
Bruns
Chase
Chiba
Chlam
Ekman
Hiern
Humph
Huynh
Jamie
Lopez
Organ
Perth
Prion
Sinai
Stipa
blues
##inoides
##ocarpum
##oscelis
##unction
Barbar
Burton
Conrad
Jocqué
Karate
Lepton
Magnus
Museum
Oblast
Olivia
Ornith
indica
mandal
minuta
##Pyrénées
Greater
Liguria
Zachodn
viridis
##urellidae
Anisodes
Aviation
Canberra
Emmanuel
Lindsaea
McNaught
Miyazaki
Shinichi
Sphagnum
Sporting
Theaceae
fasciata
##Heteropoda
##ellariidae
##ocoleaceae
Carpenter
Hydrobios
Zonguldak
Khrushchev
Passiflora
Sevastopol
Trichoniscidae
##AG
##Mẹ
##èv
##ит
##ọp
##-54
##Thổ
##bay
##bạn
##hạt
##ibe
##iqu
##kyō
##lấy
##omn
##otá
##uge
##Đối
##đất
$2
BA
BS
RM
Tỳ
UM
ge
Đu
đờ
##....
##Blan
##Cyrt
##Prom
##Quan
##Tiền
##Tuổi
##akon
##allo
##ammu
##enzi
##ilde
##inez
##ioph
##isus
##lein
##odin
##olla
##riff
##siêu
##suta
##tuổi
##việc
##ypus
##zech
0,3
243
255
42.
45.
51.
Atr
BAS
Dâu
Eck
Erd
Inu
Lle
Lăk
Lậy
Mih
NCT
Ned
PGS
Rối
Tec
Wai
acc
bần
giơ
han
húc
lor
low
mửa
net
nện
riv
sep
she
tột
##ality
##ayana
##champ
##chang
##etala
##icial
##ished
##leben
##léans
##nikov
##ontia
##staff
##ström
(165
1840
1873
Acer
Boug
Carm
Chải
Copt
Croc
Duẩn
Gehr
Hass
Homs
Lits
Mamm
Nath
Neoc
Nish
Pero
Ples
Saga
Silv
Tard
Wade
bull
glau
mine
phất
prob
sept
thẫm
year
##Griseb
##Lycosa
##antsev
##inaria
##nhorst
##ocrypt
##odorus
##onella
##orhiza
(1982
(1994
1799.
1888,
Abyss
Acron
Brigh
Dhabi
Drill
Guide
Marin
Polyp
Puget
Reyes
Rolfe
Rzhev
Salix
Secur
Sybra
Thoạt
Unter
Vogel
black
khước
megal
##Vilaine
##ftwaffe
(2012)
(2013)
Brooks
Cappar
Davall
Hayata
Nature
Player
Singer
##Scytodes
##hradecký
##ianensis
##omorphus
(2003),
Bellary
Cancell
Classic
Elliott
Gehrels
Jupiter
Norwich
Pasteur
Phillip
Potsdam
Randall
Severus
Tunceli
modesta
Sardegna
Sesiidae
Stargard
unicolor
Baltimore
Leskeaceae
Pediciidae
soundtrack
Philosciidae
Oberösterreich
Královéhradecký
##EU
##Jo
##NV
##jö
##pm
##ат
##–8
##)).
##-36
##-38
##Pat
##Por
##Sao
##bre
##cấp
##fth
##hny
##iag
##kun
##lau
##nin
##nit
##sai
##taş
##tit
##tum
##uus
##xes
##öck
##–30
CL
DR
Hō
Hủ
Mg
TB
mè
ot
wa
##Conn
##Fall
##Gard
##Geor
##Harp
##Lion
##Luật
##Nước
##aper
##auta
##bera
##biến
##enic
##ertz
##este
##ilda
##imia
##khem
##orca
##oxia
##with
##ydos
221
235
3.9
850
Cox
Het
Hut
Mấy
Nih
Nốt
Oen
Pah
Rag
Rao
Tox
VHS
VTC
anc
bờm
cub
dứa
hòm
kam
yếm
##Cloud
##Olios
##Zempl
##arter
##elina
##entus
##istry
##kreis
##odera
##onium
##orsky
##osius
##rador
##uberc
1080
12,7
1862
3166
Bear
Bowl
Casc
Cool
Củng
Diệc
Doha
Dorn
HTML
Kiệm
Kond
Moll
Morm
Rhac
Tann
Wund
hiềm
liti
nhạn
nấng
roll
siết
they
wall
Điếm
##baatar
##idonia
##iggins
##iphora
##roctus
##temera
##ustris
1960)
1962)
Abdel
Beast
Cagli
Cecil
Corse
Freud
India
Johns
Luyện
Manit
Miles
Prime
Thiệt
Yeşil
choán
found
thằng
triền
##ethoven
##ographa
##onarius
##oszczno
##otricha
(2005)
(2011)
Action
Anders
Bogotá
Borsod
Bowell
Contin
Dynamo
GameSp
Grolle
Honshū
Hypena
Inform
Magdal
Scheer
Sunday
Vienne
Wesley
contin
tuberc
Algiers
Andorra
Britann
Firefox
Lastrea
Vilnius
Warwick
Geranium
Gressitt
Justicia
Kadokawa
Tiberius
Wakayama
Baccharis
Campanula
Choszczno
Cronquist
Eskişehir
##iopomorskie
Psychomyiidae
Laemophloeidae
##"”
##Du
##Lễ
##SU
##Tw
##kö
##đá
В
##"”.
##-64
##320
##Gon
##Leg
##Mặt
##Nov
##Ven
##Wan
##azı
##cop
##ece
##ehm
##giá
##hPa
##hou
##jun
##ped
##pon
##tek
##uer
##upe
##xia
##zin
##ías
5;
BB
CJ
If
Xạ
ak
##49),
##Hist
##Horn
##When
##dòng
##erna
##iffe
##ilov
##isei
##kale
##kara
##oura
##ssur
##time
##tiêu
##uzov
##vila
##đang
217
218
233
245
254
275
63,
89,
Bum
Gag
Gig
Ins
Kae
Laf
Lal
Ryū
Tep
bir
dẫu
fur
hất
khế
rằm
soc
tal
##-2011
##/2007
##Abaúj
##Baill
##Hogna
##elech
##erous
##estis
##gramm
##itect
##olept
##oloba
##rause
##river
##ulans
(172
1700
1878
2500
Alto
Aude
Bark
Brno
Dors
Full
Ille
Jörg
Kost
Kron
Liều
Loew
Marm
Maui
Miễn
Poly
Tito
Vera
Worm
caes
cath
chen
cocc
hack
nerv
rình
##ashire
##atcher
##idalis
##kinson
##ocaust
##onicus
##piritu
(1997
1964)
1973)
Cloud
Dante
Düzce
Eddie
Essex
Kuban
Laden
Lhasa
Luigi
Macau
Nagar
Strat
Towns
Tyson
flexu
sướng
##Zemplén
##eckeler
##opecosa
##pestris
##tenburg
##ürnberg
13.000
Amanda
Asclep
Chopin
Claire
Duncan
Indust
Krishn
Lacert
Odessa
Pleist
Pyrene
caerul
nitric
##ocentrus
Barrier
Chapman
Detroit
Hepburn
Satsuma
Spartak
spinosa
##innamomum
Bauhinia
Espiritu
Hispania
Marathon
Nakajima
africana
androgen
Beethoven
Nyctemera
Peterburg
Pardubický
Electronics
Psittacidae
Scraptiidae
Marattiaceae
Plectranthus
Heteroceridae
##EV
##KT
##UE
##ús
##ин
##2):
##60)
##Bis
##Hậu
##Máy
##Ori
##Wel
##ağı
##edu
##gal
##ify
##jal
##kos
##phụ
##rii
##run
##sut
##uon
##uty
##vốn
##was
##yia
##örn
#1
Hố
Mơ
OK
Sü
TA
[1
на
##Hình
##Toàn
##Vĩnh
##abit
##aunt
##ecia
##eole
##even
##giai
##icki
##ikan
##ivar
##iểng
##kamp
##olie
##ovna
##tech
1.1
265
41.
Alz
Baz
Bib
Gla
Ita
Jia
LCD
Lun
Làn
Sữa
Trứ
Tựa
Ula
ext
hấn
jam
lẻn
pec
rái
rủa
tấc
tửu
Đau
##Thiếu
##alanx
##annah
##aukee
##chiha
##epala
##ocopa
##orrow
##traße
##umble
##ummer
##vania
1806
Araf
Army
Aviv
Burk
Bưởi
Cabo
Case
Cess
Chàm
Corb
Corv
Duật
Flet
Furn
Holy
Intr
Jeju
Meng
Pueb
Rach
Rita
Sait
Samb
Sept
Shen
Treb
Turb
Tusc
Vale
Viss
Yeom
glab
iPod
nhại
phèn
Điêu
##Nassau
##amount
##arkand
##ebecca
##elides
##errima
##iewicz
##innata
##ything
1800,
1848,
Adige
Chiếm
Chiểu
Daegu
Elias
Gallo
Lille
Lysim
Negan
Pagan
Popov
Swans
Thrau
biếng
brown
khuỷu
sumat
##Groenev
##atensis
##enegger
##onaceae
##otropis
##sengumi
70.000
Andrey
Bratis
Ceylon
Engels
Euclid
Factor
Gibson
Göring
Intern
Kaszab
Lionel
Littor
Martín
Metall
Motors
Parris
Pocock
Powell
Prodid
Québec
Ryholt
Sendai
Verdun
Wolver
macros
nitida
pilosa
server
sitcom
stress
tuabin
verruc
##Schweinf
##leurodes
##ripennis
600.000
Bechyne
Britain
Clayton
Enrique
Hancock
Lobelia
McMahon
Moravsk
Panicum
Papilio
Pseudop
Wrocław
silicat
##onorycter
Bordeaux
Calymper
Chandler
Emirates
Fletcher
Lejeunea
Silesian
sinensis
##Groeneveld
Andalusia
Byrrhidae
Education
Elisabeth
Holocaust
Lightning
Enterprise
Lancashire
Szczecinek
Capparaceae
##oglohyphantes
Pterobryaceae
Schwarzenegger
##[[
##cı
##tỷ
##-45
##Eck
##Ros
##Som
##abo
##hak
##hầu
##mặt
##obo
##rút
##thể
##tia
##utz
##yns
##zog
CT
RP
SW
Sô
je
kr
##-10,
##Chev
##akra
##akut
##amat
##asty
##dùng
##ersk
##etok
##fast
##ilic
##itra
##izia
##oran
##rath
##rong
##tual
##ugan
##ulse
##vinc
0,7
1–0
2.8
3,2
312
4-0
49%
65,
75,
77,
92,
Bôi
Dữu
Elb
Gim
Gos
Kyū
Pou
Ryu
Sâu
Uri
Ush
Vết
bẩy
don
lig
lun
nái
pic
sậy
teo
tuế
Đái
Đạm
##Qaeda
##Smith
##Trịnh
##abang
##aglia
##aisal
##aptop
##argus
##ernet
##etica
##linia
##opius
##raham
(177
1882
51%.
6000
Alek
Amun
Brod
Carn
Chơn
Cull
Gram
Hebr
Hild
IMAX
Kiêu
Peak
Pisa
Rail
Snap
Stav
Tamb
Thak
Thur
View
nana
ngần
stip
vulg
##/2008,
##/2011,
##Battle
##Ctenus
##George
##Johnst
##Robert
##Trương
##icella
##ocolea
##timate
1.300
1811.
1863,
1897,
1902,
Break
Gerst
Kerch
Krupp
Moure
Paula
Polys
Quýnh
Radlk
Right
Rossi
Sasha
Schwe
Speed
Tereb
nitid
other
##anthura
##ianeira
##optilia
##oughton
##urgidae
Baikal
Curtis
Denver
Flores
Isabel
Jeremy
Lecyth
Meland
Schiff
Silene
Vachal
Willem
compos
##icularia
Allison
Ambrose
Antigua
Antwerp
Baldwin
Garnier
Khalifa
Kingdom
Rolling
Shepard
Trinity
Vriesea
Bradford
Cagliari
Garcinia
Patricia
Paramount
acuminata
Jubulaceae
Miturgidae
Thraupidae
flavescens
Phyllonorycter
##2/
##Ga
##NN
##uo
##wh
##xx
##çe
##ël
##íč
##–7
##)."
##-3.
##-76
##Fly
##Mil
##Phi
##Tar
##gre
##kel
##oya
##rex
##tdl
##tạo
##urb
##ygl
##yin
##Đêm
##đen
NC
RF
Tí
Úy
##20),
##75),
##ICEF
##Leuc
##ampa
##assi
##atos
##enge
##incy
##ocon
##udad
##unia
(35
(60
224
228
308
375
68,
Aux
Bie
Hér
Kyl
Lex
Mực
Pig
RCA
Riz
Ryo
Urs
Zem
def
dãi
eff
háo
lyc
rót
sầm
##actis
##adona
##amide
##anced
##arion
##atari
##atham
##atore
##azole
##ermis
##estus
##icera
##oleuc
##otion
##owers
##rhiza
##teata
##tonii
##ulose
##vivor
##yceph
##ycnem
1861
Bian
Brux
Chọn
Dang
Data
Eniw
GABA
Garr
Haut
Kont
Luca
Maas
Maru
Mash
Musc
Nghè
Noel
Shig
Sign
Stil
Swan
Turd
Wadi
arcu
fish
fort
khét
lạch
metr
musc
phẩy
plum
rose
rufa
time
##Chương
##Krause
##ercops
##islaus
##ispina
##kowski
##street
##terson
(1980
1.600
1792.
1887,
Accip
Hitch
Hưởng
Moran
Peace
Ponte
Pseph
Trích
Trống
Typhl
amoni
chệch
khang
##Titanic
Abydos
Amenem
Blanco
Cymoth
Gamble
Kombat
Maiden
Microc
Montec
Ochyra
Pleiku
Savoie
Uchiha
Uttara
mucron
Baptist
Bradley
Donetsk
Drawsko
Gifford
Junkers
Kalinin
Lorenzo
Niigata
Preston
Rebecca
Summerh
Volkhov
Eniwetok
Pretoria
Yamagata
penicill
punctata
Brunswick
Rajasthan
Robertson
Bratislava
Conference
Electronic
Ranunculus
reticulata
Funariaceae
grandiflora
Davalliaceae
Scarabaeidae
Cryptophagidae
##LE
##NL
##PO
##Ra
##SI
##UI
##lý
##sư
##đà
##30)
##Cer
##Lab
##cảm
##ezo
##hib
##hwa
##ień
##lit
##lưu
##tef
##uap
##ynn
##ägr
4)
Cs
FS
QF
Sổ
hũ
Ál
##-186
##37),
##48),
##Live
##adus
##akes
##arak
##bara
##bệnh
##chik
##elda
##fall
##frey
##ikon
##ipat
##kovo
##obal
##obos
##ohan
##royd
##uage
##usus
(3)
2,3
3,7
520
6.5
8,5
Boa
EOS
Ear
Hột
Jum
Luz
Pup
Pác
Suh
Toa
Zan
bứt
gar
ghe
thỉ
unc
yểu
##-2010
##/2013
##Gener
##argas
##isada
##otyph
##romis
##tirol
##uania
##yanua
(170
1864
Aber
Alph
Chum
Coul
Cuph
Côte
Dale
Djib
Gear
Grim
Half
Hath
Krem
MPEG
Mein
Plut
Race
Ried
Senn
Seri
Sieg
Sime
Soon
Tara
Tech
Teph
Ulob
Vist
gọng
hero
memb
suôn
xước
##ashion
##erlich
##lystis
##oceros
##oderma
##omonas
##osella
##roides
##stream
##sworth
##terdam
1.700
1859,
1873,
1884,
2001)
2017)
Agath
Akbar
Aurel
Chiên
Clear
Coral
Draba
Dường
Dưỡng
Edwin
Energ
Kashi
Kuros
Malth
Nemes
Shizu
Steam
Traff
Trias
Vader
Wolff
anion
javan
north
sonar
sushi
##actylus
##anzibar
##efeller
##ispidae
##opappus
##unensis
(2003)
11.000
Ancona
Barney
Canter
Common
Eduard
Effect
Gestro
Lucien
Majuro
Mehmed
Palais
Palmer
Rashid
Report
Review
Soccer
Thrace
Weimar
rocket
##oglottis
Caribbe
Carroll
Clapton
Hidalgo
Lesotho
Parsons
Takashi
Tallinn
Tonight
Vickers
Adriatic
Belgrade
Communic
Reynolds
Scarlett
Services
Sullivan
Adventure
Artemisia
Bruxelles
Idiopidae
Rodriguez
Lacertidae
Engineering
Mantispidae
Shinsengumi
testosterone
##)<
##Bồ
##Ha
##Hệ
##Id
##Võ
##cụ
##mở
##Để
##śc
##-85
##/04
##50)
##70)
##Cầu
##Hòa
##Kit
##ROM
##Tan
##Tại
##adu
##iez
##irr
##kim
##oms
##pas
##pei
##pta
##tti
##uid
##utm
##yuk
##zar
Nê
UP
UV
cy
gù
tí
##-12,
##36),
##72),
##Phật
##Play
##Trận
##aeum
##arsk
##azma
##boro
##elea
##enov
##enti
##eras
##erin
##ippa
##iria
##khaz
##ming
##opyr
##oric
##ovan
##redo
##ueng
##vòng
##örde
2.4
216
279
30–
460
52.
62,
71,
88,
90.
97,
AKB
Bồi
Côi
Daj
Eve
Fol
Ign
LHQ
Nưa
Sàn
Ved
WWF
Yeo
abd
hun
kur
oai
tơi
Đao
##Lewis
##Thông
##odict
##omene
##oross
##ycosa
1300
1838
1872
Borg
Cana
Cope
Eria
Foss
Gael
Haag
Kato
Kure
Nana
Ochs
Phon
Phẩm
Piau
Sala
Sans
Styl
Trát
Tánh
Xoài
anom
bell
chấu
croc
intr
obov
quất
rảnh
váng
Đoài
##Prunus
##acchar
##allene
##forman
##ihalli
##istrig
##linger
##onnais
##oratus
##rantha
##waites
1892,
1963)
1966)
ASCII
Aphan
Books
Candy
Colch
Hanja
Happy
Kauai
Miner
Staur
Stigm
Stoke
Tunis
Yukar
Zenit
asper
front
nghẹt
nhộng
place
quăng
rhomb
small
world
##Command
##atorium
##entropy
##inervis
(2004)
(2008)
Dmitry
Girard
Gloria
Juncus
Poecil
Rehder
Schimp
Stereo
Teuton
follow
parall
##eocharis
##unctatus
##vincible
Ampedus
Brescia
Command
Domingo
Gleason
Industr
McVaugh
Nations
Neville
Shannon
Suffolk
Vanessa
contain
council
halogen
humilis
peptide
plutoni
scandal
##Australia
Agamidae
Carnegie
Holdings
Moldavia
Original
Westwood
Yakovlev
Yamamoto
Countdown
Divisione
Rotterdam
Nephrodium
Nottingham
Terebridae
Wunderlich
nucleotide
Cirolanidae
Rockefeller
Salpingidae
Württemberg
dreadnought
Metropolitan
Lecythidaceae
Cancellariidae
##Az
##DO
##Mr
##QT
##Vụ
##dự
##lê
##wy
##đê
##ız
##ța
##ми
##–5
##–6
ơ
##)),
##194
##Alp
##Cha
##Pur
##Spr
##Sud
##bah
##bis
##esn
##giả
##gây
##icy
##lak
##nho
##nôm
##tài
##ugg
"1
"2
GH
Hö
Jó
OH
Tụ
VF
lư
##30),
##Alto
##Cham
##Coll
##Cảnh
##Mach
##Take
##Tour
##Wimm
##amis
##aule
##chal
##chol
##cuối
##enot
##giao
##iale
##indi
##kawa
##lint
##oron
##otin
##owne
##rill
##uden
##ungs
##upta
##verd
##éric
##ívar
##ский
239
640
94,
BXH
Bam
Cra
Eps
Gas
Gob
Gyl
Koł
NBA
NHK
Nel
Oro
Sia
Tôm
Tản
Vex
Zon
ald
búi
day
esc
gảy
héc
nep
nếm
vít
##Davis
##Final
##Lenin
##Triều
##Tuyên
##ahnia
##akami
##feron
##icaud
##itans
##ngoài
##olulu
##picua
##scope
##trand
1859
1867
1869
1876
Away
Biền
Dart
Fang
Fast
Giảm
Gova
Horm
Luiz
Moor
Niềm
Past
Poir
Polk
Pênh
Rene
Shay
THCS
Torn
Vass
Walk
Wein
Zlín
alba
cheo
chùy
gien
khít
ngấm
nhịn
sord
trụi
xiết
điếm
##/2012,
##Bailey
##arctia
##audich
##lingen
##orhina
##ospila
##ssurea
##ternal
##ylidae
(???)
1883,
1896,
1967)
2005)
2009)
Atlas
Baron
Bihar
Chion
Gould
Homal
Ignat
Miệng
Montr
Nazar
Oroch
Rolls
Rubus
Saito
Schön
Seven
Starr
Subic
Theft
Total
Truật
Turbo
Vinci
Xyris
invol
khuya
mường
point
quách
Ávila
##aroslav
##ophylax
Abrams
Canyon
Durban
Erythr
Jeanne
Joshua
Malcol
Medici
Milton
Patton
Rostov
Sergio
Wilcox
carboh
cation
coriac
silica
##Ommatius
##Provence
Airport
Cardiff
Cartoon
Factory
Kutuzov
Mission
Oecetis
desktop
tristis
Labrador
Vocaloid
Xylocopa
insignis
phosphor
##oceratidae
##ontinental
Grammitis
Melanesia
Phoenicia
Saussurea
2016-2021,
Australian
Cyprinidae
Pitcairnia
Heavyweight
Pilotrichaceae
##1:
##Es
##GE
##If
##KO
##Nu
##ät
##ĐT
]
##Cav
##Dam
##Lee
##Nar
##Rox
##Sân
##Vào
##geb
##idl
##iks
##leM
##sân
8;
Cò
Hé
LA
MX
Mũ
TO
kl
ou
tì
ơi
##44),
##Arch
##Bang
##Binh
##Chân
##Schw
##Sách
##Vùng
##acan
##acin
##acle
##aeth
##anii
##chuk
##cula
##egia
##eiro
##emar
##enol
##ensh
##ersi
##fran
##inax
##ogan
##orff
##otic
##ouck
/><
0,9
1,1
266
3,6
406
540
65.
77.
Fah
Gut
IMF
Mew
Osm
Pyg
Reu
Rol
Suc
Vad
Xoa
Yur
bat
cas
chớ
cin
cằm
dằn
kèo
ôtô
Đát
đán
đôn
##...""
##...".
##Brand
##Champ
##Drans
##Willd
##amata
##artia
##break
##igami
##inkel
##ochus
##omela
##omori
##ossus
##tains
##thanh
##velev
##ydrus
##ánamo
(169
1865
1875
1887
Alej
Bari
Giza
Hats
Khán
Klot
Kurz
Mell
Mode
Moth
Nine
Nồng
Pelé
Phức
Pine
Push
Raff
Shon
Tikh
Tull
Xiph
Yell
Zerg
arct
diên
haem
kềnh
nành
pres
thìa
vict
work
##Canada
##Dransf
##Phương
##Street
##United
##adocia
##eneuve
##ension
##formis
##illata
##innati
##istria
(1976
1899,
1945)
Bénin
Cheng
Colin
Frull
Hardy
Lufth
Mahat
Nhiêu
Omega
Pearl
Piauí
Tracy
atten
board
chuốt
dimid
plant
tuyền
##Charles
##icoides
##idippus
##ttingen
Alonso
Burret
Cantal
Hokage
Hydroc
Invest
Itachi
Letter
Market
Padova
Sarthe
Spirit
Spreng
Strong
Takeda
UNICEF
metall
micros
quinqu
school
##Doraemon
Calyptr
Cornell
Grenada
Hawkins
History
Leopard
Livings
Orléans
Profess
Telecom
Tortula
Ardennes
Gleichen
Griffith
Sakhalin
Krasnodar
Lithuania
Stanisław
marginata
pulchella
Drilliidae
Industries
Cololejeunea
Polemoniaceae
##)(
##FM
##Yi
##Úc
##ле
з
##/03
##101
##3,5
##Báo
##Far
##Mai
##Mat
##Ram
##Van
##bốn
##hiđ
##jaz
##lên
##oxy
##sản
##tez
##tốt
##uco
##íaz
##órz
##ütz
7%
Bó
RC
RO
Vé
WS
bẹ
tễ
ze
##/193
##18),
##35),
##42),
##Hiện
##Mang
##Mark
##Nest
##Shin
##Zulu
##aday
##ayas
##brid
##dock
##epam
##etin
##ferr
##ieux
##ilep
##ires
##ized
##left
##luật
##ollo
##omir
##onte
##orte
##ovar
##tail
##ucat
##ович
(80
530
6.0
Agn
Dau
Dek
Dex
EMI
Fau
Gda
Gum
Hap
Hip
Nos
Săn
XML
bịp
lon
mứt
ngơ
pre
vạc
xòe
óng
##-1945
##Nhưng
##Space
##Trach
##actor
##alein
##ammar
##andar
##andri
##chiều
##enzie
##erian
##islav
##osten
##riend
##skoye
##undai
##untia
##urgus
##yclop
(150
1100
1820
Aube
Auth
Baku
Bedd
Chau
Chel
Clem
Crat
Dorc
FIDE
Gest
Hacı
Hedw
Hits
Hood
Inga
Keys
Noah
Para
Pesc
Phal
Pope
Raja
Scel
Shib
Suss
Tomb
Utre
biếu
citr
disp
guan
more
mòng
only
pell
sảng
trin
trảm
vitt
##Office
##angelo
##ariety
##fortia
##ostola
##silver
##sonota
1813.
2004)
Agard
Canav
Ceres
Cerro
Clyde
Côtes
Elvis
Fleet
Geran
Heian
Inoue
Leigh
Lotus
Mills
Phnôm
Prima
Salem
Smart
Solid
Thiệp
Trust
Usagi
brunn
genus
stell
##alajara
##imantan
##leMania
##octenus
##othorax
##penheim
(2007)
Albion
Alsace
Attila
Bernad
Bingöl
Blanch
Habana
Lucius
Nantes
Ocotea
Search
Zander
amiăng
constr
obscur
ornata
##Coelotes
##Saturday
##gemeinde
##iopteris
##oliaceae
Casimir
Chronic
Karaman
Liparis
Saviors
Strauss
Swansea
Vaughan
Windsor
ethanol
hirsuta
Świdwin
Andersen
Claudius
Erichson
Geoffrey
Govaerts
Manitoba
Nürnberg
Polygala
Sorbonne
Toulouse
intermed
Flagstaff
Frullania
Lufthansa
Platycnem
Samarkand
latifolia
mirabilis
tomentosa
Anthophora
Austrolimn
Eriocaulon
Nemesiidae
Schumacher
variabilis
Guadalajara
Interactive
Pedicularis
yunnanensis
Costellariidae
Gleicheniaceae
Platycnemididae
##"<
##9"
##NI
##lá
##sy
##ổn
##"/"
##-4,
##12)
##196
##240
##Bet
##Las
##Làm
##McC
##Res
##Soc
##Sor
##Vol
##Who
##_13
##cực
##hab
##jad
##kii
##nań
##neb
##ngư
##phe
##ryn
##uet
##ürk
BT
CB
Nd
hử
##-180
##34),
##Diễn
##Drac
##Sull
##Wind
##aido
##atro
##aute
##cung
##ding
##ersa
##gios
##iysk
##loài
##oken
##oldi
##pens
##rent
##rona
##tres
##uris
##Đoàn
1/5
2".
236
241
285
4-1
415
48.
5.0
69,
720
Aik
Dew
Els
Fow
GDI
Ges
Goa
Jaw
Jew
Lựa
Pik
Rif
Sae
Trĩ
Ust
Wid
Xóm
Zab
aud
bít
cựa
găm
rầy
sủa
xén
##alina
##ansha
##antia
##aptor
##cheng
##elena
##eslav
##estin
##ettin
##hotep
##iades
##igmat
##impla
##ocort
##okine
##omitr
##onstr
##orden
1815
Baza
Chuk
Crum
Dash
Dell
Dent
Duch
Endr
Eois
Liss
Láng
Ment
Morb
Mund
Mừng
Nhuế
Plac
Sach
Sato
Slip
Srin
Targ
Vega
beng
cant
film
folk
ganh
hirt
khứu
mướn
nhăn
nịnh
succ
trâm
Điềm
##atoria
##ellina
##ematis
##eoides
##evitch
##illing
##ingeri
##inning
##nament
##ogyrus
##otonin
##ryidae
##sburgh
##ydrate
1.100
1840,
1865,
1868,
1958)
2002)
4.500
Agnes
Berks
Blues
Campo
Canal
Chích
Claus
Cocos
Cozak
Crown
Cuống
Horse
Maxon
Scorp
Timur
Xibia
frông
graph
grise
trạch
##Romagna
##ymenium
(2010)
Abkhaz
Amphoe
Blechn
Fuller
Govern
Heracl
Hinata
Judith
Keynes
Kitami
Korean
Lindau
Marine
Merlin
Paepal
Things
Toyota
dolich
glabra
hacker
rating
strict
##arnhorst
##oniaceae
(2007),
(2013),
Auguste
Catania
Ferrari
Fourier
Gnophos
Humbert
Hyperol
Jeffrey
Madeira
Pereira
Richter
Timothy
Utrecht
caliber
##StarCraft
##Westfalen
Albrecht
Associat
Benedict
Catalina
Dianthus
Dressler
Friedman
Gentiana
Hannover
Klotzsch
Martínez
Mourinho
Novoross
Ommatius
Samantha
Universe
##Washington
Euphrates
Göttingen
##umatopsyche
Barbarossa
Cappadocia
Cinnamomum
Federation
Theodosius
lanceolata
Acrocercops
Macromitrium
Paepalanthus
Lophocoleaceae
##"'
##DB
##Ep
##Ok
##Sư
##ej
##kl
##mô
##qq
##ól
##!""
##-32
##-95
##180
##195
##Ark
##Bre
##Cic
##Emp
##Kam
##Quý
##Tom
##amy
##def
##iao
##idy
##izi
##lán
##mic
##nut
##quả
##ryi
##uze
##éal
##éry
##özü
BI
BV
QL
Tj
VC
bô
ok
os
ẩu
##/10.
##19),
##Anth
##Hand
##Yang
##abas
##aequ
##akul
##amic
##awat
##ayen
##chyr
##chết
##cock
##ctor
##cộng
##elic
##enka
##esti
##ević
##inah
##inet
##iped
##mart
##mere
##mied
##neis
##ocle
##onym
##orda
##orne
##osin
##othe
##ovir
##ovis
##rous
##seus
##skov
##sted
##toch
##ystr
(7,
1/1
14;
238
268
3,3
66,
Ada
Bôn
Cum
Heg
Ida
Lựu
Sie
Taw
Tàn
Urd
Wał
XXI
dei
eri
gài
kit
lẩu
ngỡ
phở
rệp
tum
xyl
Đọc
Łód
##Royal
##arest
##erina
##ipula
##issau
##olita
##opeza
##sbury
##stown
##ullia
##varez
1836
1868
200.
Coca
Cành
Drey
Evan
Goni
Hick
Hyps
Jake
Jami
Kami
Kerr
Kiếp
Lieb
Musa
Nhện
Sarc
Shap
Sint
Sith
Tail
Tiff
Tiềm
Toni
Tria
Vert
Viol
Wass
Yoko
ampl
bung
carn
coch
dưng
ever
gard
mast
ngẩn
ngẫm
scab
silv
thắc
tuốc
voọc
vung
yoga
##/2013,
##Batman
##emagne
##escent
##icatus
##ipiens
##ovirus
##ricane
(1985
1969)
2006)
2010)
3.500
Asahi
Bouch
Burns
Chain
Chuck
Dượng
Gibbs
Guant
Joker
Kenji
Klaus
Leiop
Maeda
Mitsu
Nachi
Pelop
Place
Roche
Shiki
Terme
Wanna
Yeong
flava
pizza
selen
suyễn
##artment
##etamine
##ochroma
##oglobin
##osauria
Arafat
Benito
Bremer
Dreams
Ectrop
Epling
Gelech
Harley
Hopper
Ismail
Landes
Linkin
Marche
Reggio
Schoen
Serena
Sikkim
Stella
Toulon
Vandal
Vision
Yamada
bakeri
chakra
sulfua
##Katsuura
##Südtirol
##ollywood
##ronattus
(2006),
Advance
Aeschyn
Hilbert
Hérault
Oxyopes
Renault
Setodes
Symbian
Thunder
Vistula
argente
##ification
Apiaceae
Aurelius
Dalmatia
Dicranum
Elephant
Motorola
Province
Trafford
apicalis
purpurea
sulfuric
tricolor
Boeckeler
Ekaterina
Grevillea
Stephanie
Stigmella
Yoshisada
Cincinnati
Guantánamo
Orochimaru
Vorpommern
Nymphalidae
Melandryidae
Prodidomidae
Hydrobiosidae
Cheumatopsyche
##BV
##Bu
##EX
##MK
##tư
##úl
##đó
李
##%),
##/02
##/05
##001
##18)
##20,
##Cop
##Das
##Ele
##Hop
##Luc
##May
##Nội
##Pac
##Pod
##Thị
##Tin
##bad
##bed
##bom
##cửa
##eal
##eko
##eye
##gea
##hậu
##ilt
##irō
##jae
##kau
##lớn
##oed
##omp
##ral
##shō
##sub
##weg
##čín
##–25
(~
5)
6%
8-
KH
Kị
LO
Mp
TG
Vá
đọ
##-191
##47),
##Asia
##Giao
##Hara
##Hend
##Lady
##Noth
##Nàng
##Siêu
##amar
##aoke
##asak
##cent
##etha
##fman
##hion
##idin
##khan
##mitt
##nets
##ober
##okov
##ongk
##otii
##teng
##trận
##vili
##vàng
##ygus
##đứng
(45
1/2
223
247
3-5
3.2
315
610
777
Dừa
Gat
Gio
Gus
HBO
Imm
Kei
Khố
Kro
Kwa
Maw
Qur
Rip
Waw
Yar
ach
bịa
cad
chẻ
giỏ
hóc
quệ
rip
seg
sởi
tex
##Break
##Radio
##Video
##icine
##inner
##istia
##kyung
##nagar
##ochth
##omoea
##oscia
##oslez
##ulcan
(120
1883
2-1.
Blak
Cary
Cler
Code
Falc
Hodg
Hors
Hugu
Kell
Khau
Khon
Lacc
Lact
Lagr
Lynn
Noum
Phyt
Pich
Spot
Tran
Tyra
Vesp
Woll
arab
conv
cruc
cẳng
hãnh
hịch
phae
phai
prof
text
tiếu
type
##Franch
##Orient
##achlan
##aranea
##ashita
##ential
##estina
##izumab
##tienne
##ulenta
(1993
1.400
1789.
1791.
1954)
1972)
9.000
Akkad
Allan
Aztec
Bolus
Brign
Chass
Dutch
Jenny
Khinh
Lotte
Match
Novos
Orect
Other
Petit
Pleth
Quinn
Remix
Style
Taira
Third
Thutm
Twice
Verdc
Verho
Wilde
again
celeb
indie
known
niger
novae
phúng
pixel
racem
rosea
sibir
xoang
##houmaru
##inclair
##ithecus
##ivostok
##ochaeta
##orhinus
2002).
2008-0
Bandai
Bitlis
Boleyn
Cordul
Cuphea
Durham
Health
Khalid
Leonid
Maslin
Nizhny
Schind
Seljuk
laevis
multic
pumila
sulfat
##Yorktown
##formance
##frazione
##oslezský
Beckham
Bromley
Buffalo
Dharwad
Eastern
Greuter
Grumman
Gryfino
Islands
Malcolm
Middles
Mozilla
Renauld
Tzvelev
acetate
pharaoh
Brighton
Clarkson
Pyrenees
##obacterium
Brescovit
Lissonota
decipiens
estradiol
##dreadnought
Annonaceae
Geranomyia
Pisauridae
Gelechiidae
Potamogeton
californica
WrestleMania
Calymperaceae
Moravskoslezský
##2"
##GR
##LL
##bh
##dễ
##oš
##ес
_
##"";
##2,5
##Ant
##Bir
##DVD
##Hyp
##Lên
##Mog
##Mặc
##Ngô
##Như
##Thr
##Trò
##bán
##egr
##haf
##hot
##hyp
##inx
##kas
##opi
##opo
##sao
##sim
##sta
##tar
##wia
##yar
##çay
##ный
4%
DM
Hư
sờ
##-150
##46),
##Cent
##Fern
##Last
##Mons
##Ngọc
##Phân
##Trái
##acet
##aign
##amid
##angu
##anis
##ansh
##ardy
##atak
##auli
##edra
##endl
##ganj
##gard
##giữa
##inaw
##meri
##oder
##prop
##quia
##reat
##ugur
##utes
##utsu
##ymat
").
(36
257
295
3.6
319
510
63%
67,
70.
72,
Ary
Bek
Bốc
Dok
Fog
Gọi
ISS
Lát
Méd
Roi
Tạm
Via
Vla
Vod
cộc
dic
dĩa
exp
fac
gab
luỹ
mòi
reo
râm
sẩy
sậm
wid
đùn
##Georg
##Knuth
##Royen
##Thống
##acola
##acruz
##aecum
##endal
##erstr
##essel
##force
##ikawa
##ismat
##miral
##night
##rison
##veira
##wartz
##èvres
1789
1814
ABBA
Asti
Beil
Beno
Bent
Blum
Bock
Cauc
Căng
Dard
Eden
Eubl
Eury
Feld
GRDP
Gork
Groß
Guér
Hyde
Kung
Lược
Nars
Phác
Prai
Pucc
Sarg
Shev
Swaz
Tele
Tomé
Zeno
aequ
alen
hand
hier
love
lúng
menu
mống
ngưu
nhét
retr
rich
thét
tivi
toát
tuột
điếc
##Forbes
##Savoie
##Tyrann
##dragon
##edtsch
##erhood
##obates
##obolus
##oclada
##opilus
##ulator
##zyński
1894,
1959)
Ancyl
Asper
Blizz
Bosch
Brent
Caspi
Combr
Ehren
Esper
Gaius
Gates
Guerr
Halle
Hesse
Jiang
Kafka
Karim
Labor
Penny
Pheng
Rogue
Sedan
cello
dượng
giăng
kanji
lupus
polyp
sangu
tango
##ifascia
##iliidae
##olophus
##oniscus
##opholis
##ovision
##ropogon
##urolith
##velines
18.000
Ahmose
Alstro
Anastr
Ciudad
Hikaru
Ichigo
Ichthy
Martha
Moreno
Nachik
Pandur
Poznań
Rivers
Shōnen
Thymus
Vandel
Yellow
antenn
axetat
brunne
desert
papill
rubric
##Meioneta
##iorrhiza
##odendrum
(2004),
(2008),
(2010),
(2011),
Epstein
Forever
Formosa
Forrest
Gerstae
Gryfice
Olympus
Pavetta
Primula
Salazar
Toscana
Vermont
Website
minutus
penalty
Djibouti
Ethernet
Goldberg
Hokkaido
Magnolia
Martinez
Midlands
Stafford
Tectaria
Waterloo
Yaroslav
speciosa
velutina
##Invincible
Acronicta
Constance
Discovery
Dorcadion
Guillermo
Halloween
Henrietta
Rubiaceae
Tephrosia
##omitriaceae
Chickering
Kalimantan
Production
parviflora
##Walckenaeria
Brotherhood
Gnaphosidae
Munnopsidae
microphylla
##Lepthyphantes
Ptilodactyla
Brachythecium
Marginellidae
Nachikatsuura
Sematophyllum
Ectropothecium
##2:
##Bi
##Mé
##PD
##SM
##UT
##gg
##kế
##üb
##şa
##皇帝
##-55
##Bus
##Ess
##ICE
##Lan
##Lex
##Sun
##TTE
##Urb
##bàn
##dài
##has
##kit
##pia
##rut
##rập
##sal
##trở
##tâm
##vẫn
Bệ
CI
DH
IR
Kĩ
MF
PB
RB
Uc
eg
lự
rơ
rồ
‘’
##12),
##="5"
##Bapt
##East
##Heli
##Lehm
##Phúc
##Ridl
##Thập
##Vict
##Week
##acci
##aine
##alar
##alip
##aung
##biển
##ebsk
##hall
##icos
##igia
##igna
##ingi
##iran
##irrh
##itai
##ivas
##jeon
##muth
##obas
##opil
##orov
##ross
##sous
##spec
##thôn
##tona
##toàn
##trus
##wehr
##yder
##èche
##đáng
##ńska
10)
19%
2.7
335
343
355
49.
5.5
53.
91,
Cóc
Dẫu
Fem
Gis
Gog
Gök
Gốc
HCl
Hâm
Hạn
Hạp
Hộc
Its
Lỗi
Nec
Neh
Olm
Omi
Piz
Riy
Sue
VND
Yap
Yes
[2]
ben
dor
ent
gem
gir
gắm
int
lìa
mỉa
nhả
nhử
shō
spr
tar
thà
##Armor
##Fried
##Great
##Hyper
##Natal
##Phòng
##Selen
##ables
##addin
##ariae
##arian
##arsen
##athea
##erite
##ernia
##ettii
##igena
##lamys
##odora
##ommun
##scher
##sdale
##thgen
##urias
(140
(184
1863
1881
6–2,
Anti
Baba
Casa
Chet
Chén
Cris
Desv
Djed
Dunk
Farm
Hald
Hinh
Hitt
Jour
Look
Lưới
Mảng
Nats
Quới
Reid
Roxb
Rydb
Saig
Sell
Sulu
Tass
Thấm
Thốt
Vitt
Yury
chap
clor
fest
nuối
Đính
##Claude
##Israel
##Master
##Powell
##atella
##estern
##ichita
##marine
##picola
##saceae
##waukee
1807.
1893,
1953)
Antôn
Borgo
Boyle
Brezh
Coppa
Coron
Czech
Davao
Edith
Exper
Filip
Golan
Jeong
Lazar
Murad
Order
Riley
Sedum
Senna
Seong
Shang
Shell
Siirt
Stell
Stroh
Trier
Wendy
Wyatt
insul
rostr
siêng
smart
thình
##asteron
##atinate
##istance
##kirchen
##ogonium
(2014)
Andrés
Arctia
Aurora
Beauty
Beaver
Cessna
Cheong
Cleora
Design
Esther
Gerard
Hansen
Harbor
Hector
Interc
Konrad
Loiret
Mickel
Microp
Montes
Rumble
Shadow
Shogun
Sirius
Source
Sławno
Yoshit
calcar
##identata
##ribution
##rostylum
(2002),
(2005),
Bedford
Chamaec
Compton
Hyundai
Khosrau
Mikoyan
Morales
Vicente
blogger
dioxide
logarit
##ifasciata
##penheimer
Blüthgen
Canadian
Clarence
Epicauta
Hermione
Memorial
Oncidium
Paradise
Theodora
cassette
Champagne
Conoderus
Nashville
Swaziland
##Scharnhorst
Alessandro
Cumberland
Dactylispa
Paralympic
Acroporidae
Charlemagne
Cryptocarya
Gerstaecker
Herzegovina
Independent
Lithocarpus
Ophiorrhiza
Sesshoumaru
##Tyrannosaurus
Broadcasting
Ditrichaceae
##Cheiracanthium
##.'
##DN
##KH
##Kế
##UR
##Và
##bí
##dz
##jm
##ая
##-51
##/09
##DOS
##Dec
##HDI
##Hon
##INN
##Sin
##Thư
##Thứ
##_11
##alu
##aré
##bai
##chế
##cựu
##ebu
##hea
##hom
##iek
##jak
##jav
##kho
##kig
##ków
##myo
##nhe
##núi
##olz
##phu
##sam
##sus
##taz
##tấn
DF
JP
PD
PL
Rö
TI
Vä
Yı
dà
sq
zh
ầm
ốp
##79),
##Bill
##Cola
##Cube
##Dòng
##Fish
##Like
##Mall
##Nhất
##Nông
##Pass
##Quận
##Reed
##Roxb
##Show
##Sông
##esto
##ilar
##inha
##ners
##oast
##ocke
##oves
##riol
##teen
##udge
##ulla
##xanh
1-3
2,6
226
269
338
410
432
49°
950
Agl
Cil
Ein
Faw
GPL
Goy
Jad
Jis
Múa
Sep
Thù
Tot
Tuc
Tóc
Tổn
Xán
Yai
Zac
aer
amm
cuc
flo
für
gil
hid
jav
jun
nas
sav
tap
vàn
xỉn
##Girls
##Happy
##Saxon
##ening
##entes
##iadna
##meida
##owicz
##parta
##quang
##reira
##verse
##wagen
(162
1831
1849
Anom
Bras
Giúp
Kach
Labs
Lehr
Levy
Libr
Make
Myst
Oder
Pern
Pist
Punt
Sami
Scud
Sibu
Trăm
Word
arch
font
hook
luồn
mind
mênh
nhấc
perf
sant
seri
thẹn
tiếm
Česk
Ưởng
##/2003/
##anense
##anicus
##anyika
##aumont
##eleine
##erlain
##icatum
##ledore
##ornata
##rianus
(1984
1858,
1882,
Alert
Byron
Elite
Faith
Hydro
Irene
Joyce
Kuril
Leibn
Masam
Nueva
Radar
Reims
Rouge
Schal
Sider
Stich
Swall
Therm
cabin
disco
polys
quyện
quầng
thiến
tròng
virut
##ajalein
##anderen
##artheid
##brotica
##itarsus
##itation
##neville
##ocrates
##teridae
Commer
Dudley
Endate
Future
Gdańsk
Germar
Halsey
Hinton
Khoang
Kyūshū
Mariah
Nièvre
Somali
Suárez
Tahiti
Turing
Velvet
alpina
arcade
inches
obliqu
sunfua
##ycinetia
(2014),
800.000
Amazing
Artemis
Gyllenh
Kuznets
Menzies
Sophron
Sprague
Tiffany
Walking
pseudoc
##phosphate
Blechnum
Blizzard
Brezhnev
Castilla
Ceratina
Clematis
Creative
Guderian
Hebrides
Kamakura
Lingayen
Marcello
Stamford
Verhoeff
Villiers
compress
meridion
##imaculatus
Fernandes
Gilgamesh
Guillaume
Loasaceae
Parkinson
maculatus
peruviana
splendens
Achaemenes
Dumbledore
Guillaumin
Turbinidae
ferruginea
longifolia
Leioproctus
Megaloptera
Accipitridae
Bougainville
carbohydrate
Cryptocephalus
benzodiazepine
##"]
##Cổ
##LP
##Oc
##UC
##kỳ
##xơ
##óe
##од
##ان
##′′
π
##-31
##40)
##Act
##Aqu
##Cat
##Dar
##Day
##Mis
##Mol
##Not
##Out
##Phó
##Sur
##USD
##abh
##aty
##bởi
##epe
##icl
##kaf
##pit
##sửa
##tay
##tôn
##zac
##Đan
Ae
KS
Lö
Mù
UH
VL
Yū
bở
dí
uế
##-11,
##25),
##38),
##65),
##Biên
##Comp
##Cung
##Penn
##Phạm
##Sant
##abel
##acra
##biên
##cham
##cháu
##chân
##date
##enre
##ezon
##icom
##inka
##iple
##ivis
##ksos
##lice
##main
##nice
##oach
##oena
##olip
##oram
##orsk
##ossi
##rept
##room
##shaw
##stad
##unny
##urum
##vana
##önen
(49
251
252
3,8
332
372
74,
80.
ARM
Geb
Heo
Moc
Muz
Máu
Nộn
PHP
PLA
Rời
Thé
Tóm
Uni
VĐV
Vưu
Wah
Yev
big
bre
cli
cum
dav
dấn
hon
lem
mùn
nấy
pay
rup
rúp
sạt
sứa
tợn
##/2000
##Centr
##Denis
##Hương
##Reich
##antas
##eless
##elium
##ellig
##ended
##ertae
##fjord
##giore
##igula
##ières
##neria
##odius
##oller
##otype
##ouble
##oucký
##owitz
##ramma
##xiang
##yster
(187
1879
Aral
Boar
CNTT
Choc
Chul
Daes
Deng
Eure
Food
Fury
Gala
Hale
Hosp
Joon
Laun
Limb
Loes
Lori
Loạn
Lượt
Mata
Mead
Mugh
Muse
Oánh
Shop
Sừng
Toei
True
Wies
Wing
cond
gibb
jack
lign
mend
thỉu
trồi
vari
wolf
xoan
Điểu
đoản
##ioneer
##ipoena
##oralis
##umbens
""...
1809.
1814.
1830,
1879,
1956)
2014)
Aegea
Bravo
Brick
Chitt
Derek
Ionia
Matsu
Muang
Presc
Punic
Schel
Shinn
Snape
Unity
aster
house
humer
magma
media
posit
rubra
three
##Arctosa
##ipalpis
##schmied
##stagram
(1998)
(2009)
(2016)
Aphrod
Archim
Artvin
Avenue
Barych
Canary
Choang
Crimea
Faisal
Guetta
Hyksos
Javier
Kamień
Karsch
Köppen
Lleida
Mamluk
Pavlov
Prague
Reeves
Sharon
Shelby
##icapidae
##obatidae
(2014).
Bolívar
Carlsen
Cassini
Fortune
Hampton
Lambert
Messier
Molotov
Mustafa
Platyst
Raphidi
Reuters
Viettel
Vitebsk
Yoshida
compact
##Harpactea
##ilionidae
Asturias
Augustin
Ballapur
Eublemma
Geograph
Hartmann
Mylabris
Shizuoka
Ultimate
district
dopamine
ribosome
Chevrolat
Macaranga
McLachlan
Myrtaceae
Olomoucký
Porcellio
americana
Burmeister
Caloptilia
Canterbury
Martinique
Pittsburgh
Revolution
Ricciaceae
Snapdragon
Soundtrack
Winchester
canadensis
nigrescens
Cheilanthes
Cymothoidae
Hydrobiidae
Vladivostok
Rhynchospora
Raphidioptera
##>-
##WW
##gà
##gô
##zl
##ěj
##št
##ва
##не
»
б
م
##-2)
##-33
##-39
##/06
##79)
##ARC
##Ann
##Asc
##Châ
##EAD
##Lào
##Quy
##Run
##Spe
##Tâm
##Vir
##bây
##cam
##cta
##eyd
##lys
##mut
##mật
##trò
##tối
##ysh
##zai
##zôn
##ühr
(*
Bê
Bô
DD
GO
KT
ME
MM
NG
Sō
TL
ek
hí
hễ
ko
##78),
##Bảng
##Chir
##Erig
##Fast
##Hoch
##Hàng
##Jose
##Koch
##Neol
##Spir
##Sten
##Thực
##Tiến
##With
##abil
##akal
##arms
##aroo
##arts
##elsa
##eval
##hoff
##html
##http
##ilev
##itos
##khác
##kova
##ngay
##ocin
##onum
##quel
##sáng
##thân
##tiếp
##ugin
##ulat
##verk
##wold
##yrrh
##élix
##Điện
(62
2.6
213
234
276
281
3).
3/4
318
323
345
356
470
5-6
66%
87,
Agu
Ats
Bậc
Dik
Fen
Goi
Hơi
Jat
Jür
KDE
MGM
Mạo
NDT
Nis
Niv
Nỗi
Pem
Sip
Tos
Túy
Vấp
Wir
Yao
bời
cữu
hot
hàu
kun
lib
ngó
nhủ
pes
rụi
rữa
thò
vẫy
##Pinus
##arica
##arpum
##asing
##asure
##borne
##celli
##eddah
##iceus
##itary
##izawa
##ocroc
##oslav
##point
##rones
##scona
##tland
##uyama
(192
Afro
Alba
Balt
Baud
CCTV
Chon
Grad
Honn
Host
Hypt
LTTE
Laus
Mito
Nico
Pian
Shot
Teng
Tess
Thát
Unic
Vila
Wool
base
mach
rece
##aleuca
##amatsu
##atiens
##ellegr
##enfeld
##icinus
##oblenz
##obrzeg
##terfly
1794.
1881,
2008)
Agrip
Colub
Curie
Hades
Hille
Iljin
Mainz
Maire
Pratt
Pskov
Rocca
Still
Teleg
Ulaan
Wesoł
arist
princ
spect
##Chirita
##Populus
##enoides
##iginosa
##istylis
##ocereus
(2002)
Andron
Benton
Campos
Fulton
Gliese
Kyushu
Maluku
Merton
Myrcia
Newman
Nomura
Pompey
Ptinus
Ramsay
Samara
Social
Sussex
Szlach
Thames
Vendée
Zagreb
axetic
columb
glauca
incons
margin
module
season
##Bismarck
##Leucauge
##nefortia
##omething
##orcester
(2010).
(2013).
Anfield
Bartosz
Berland
Calvert
Council
Cáceres
Fleming
Hillary
Ipomoea
Kampala
Lopatin
Martins
Natalie
Porphyr
Protein
Sarkozy
Stachys
casting
striata
Ústecký
##schmiedia
Cleridae
Coldplay
Hoffmann
Honolulu
Magellan
Peloponn
Sciences
Survivor
Xysticus
gigantea
hydroxyl
linearis
striatus
Kazantsev
Kwajalein
Pentaphyl
Rochester
Schiffner
Funimation
Maxillaria
Strohecker
Waterhouse
Acanthaceae
Constantius
Continental
Springfield
Entodontaceae
##3]
##:1
##Ot
##Tả
##UP
##bs
##ри
##.26
##/07
##AMP
##Arc
##Ash
##Bas
##CoV
##Dan
##ECD
##Gur
##Law
##Nag
##Sai
##Tàu
##UTC
##Vân
##bầu
##det
##eaf
##emp
##ezb
##iep
##ijk
##jik
##lời
##nee
##nei
##nha
##oré
##riô
##ubi
##vus
##ymo
##émy
##Đảo
##Đất
")
HI
Hä
Nk
Xo
dế
oa
pa
pi
xở
##-187
##-189
##Adam
##Cher
##Dict
##Gymn
##Hart
##Nghị
##Phát
##Plan
##Plat
##Teen
##Than
##Tuần
##Ware
##Your
##akus
##arez
##benz
##ders
##eper
##erse
##furd
##hpur
##idol
##ilos
##irat
##nông
##năng
##orrh
##otum
##oxis
##rard
##rose
##ucle
##usai
"),
(38
(9,
00,
1).
242
261
298
303
390
4,6
47.
54.
560
580
7.0
7.5
73%
78,
83,
85,
Bổn
Gub
Höl
Ked
Lật
Mál
Mön
Nút
Nối
Ore
PAL
Ref
Süd
Vác
Zay
Zel
bil
box
bục
cỗi
lag
lei
lia
lit
mỉm
mồm
nob
rod
sần
viv
Đứa
đay
##Dương
##Royce
##Tokyo
##agana
##aller
##arpur
##assia
##estre
##icino
##ienus
##ieste
##ombie
##phora
##rhein
1874
Acon
Aech
Alaw
Baek
Burj
Crit
Cura
Cạnh
Deux
Edir
Gale
Gore
Grav
Hach
Khor
Kiệu
Lath
Liam
Ngập
Pann
Tats
Tych
Vish
Yeon
Yoga
bồng
club
feed
gymn
plac
ther
trẫm
tằng
yard
##/2010,
##alonia
##ancial
##atrach
##enthal
##epalum
##icarpa
##idaria
##imedia
##league
##master
##ornith
##otoxin
##richum
##ópolis
Ampul
Appal
Banda
Carly
Cowan
Derby
Donna
Ember
Fimbr
Goiás
Gomes
Hello
Kirby
Lesne
Lodge
Natal
Ngung
Phiến
Pomor
Prote
Sloan
Templ
Thunb
Tolst
Years
after
annul
divar
facto
gener
megap
##Gardner
##ayaquil
##czynski
##ylaceae
(2017)
Alston
Aspöck
Calais
Connor
Copern
Crepis
Delève
Herald
Hoover
Hornet
Jeddah
Kagome
Mahmud
Mendes
Mercer
Mortal
Riccia
Slovak
capill
glomer
larvae
rigida
xyanua
##adeloupe
(2008).
(2009),
(2012),
Antonov
Ardahan
Belfort
Calamus
Claudia
Digimon
Jericho
Karabük
KwaZulu
Marcell
Musical
Rodrigo
Weissia
ciliata
elegant
playoff
project
pulchra
##Maritimes
##ochtherus
Beaufort
Concorde
Germania
Makerere
Morbihan
Olividae
Silveira
vulgaris
##arajanagar
##opterygium
Erioptera
Instagram
Marketing
Rendsburg
Riccardia
Transport
serotonin
variegata
Panduranga
Tanganyika
Christenson
Freycinetia
Oppenheimer
Novorossiysk
Neolophonotus
Chamarajanagar
Erythroxylaceae
##3"
##Dự
##Od
##bò
##oC
##ój
##–4
王
##1,5
##2.0
##8-1
##Ble
##Fir
##Hey
##Lâm
##Mak
##Old
##Phụ
##Rad
##]]"
##apu
##cai
##ghi
##het
##poh
##āng
##đọc
$1
DA
GI
SF
Sł
Tị
XF
ts
um
vớ
##Dark
##Fire
##Hood
##Jacq
##Kiến
##Mars
##Park
##Prim
##Wasp
##acey
##acis
##ajar
##aköy
##arna
##arti
##asch
##bard
##baum
##chel
##cuit
##evan
##fork
##igao
##igas
##imét
##inin
##irty
##ived
##list
##loro
##nhận
##ocar
##ohyd
##rani
##roma
##ugia
##ussa
##uten
##vier
##wide
##ytta
232
248
3.7
313
46.
46°
570
660
67%
82,
ASD
Ahr
Anz
Ava
Buy
Cus
DOS
Dib
Dra
Dug
HTC
Hes
Ist
Itt
Kao
Küç
Mại
Thợ
Thự
Tuỳ
Tải
cos
din
gao
noi
poa
rut
tak
xẻo
##Hello
##accio
##agere
##amani
##antic
##arada
##arthy
##azawa
##boxyl
##etics
##eyeri
##itana
##lepte
##maria
##ocles
##olles
##othic
##ouill
##phòng
##undus
##vương
##wards
##yring
1400
1877
7,62
80%,
Axel
Chơi
Dass
Elle
Eyes
Gasp
Guat
HMAS
Happ
Kota
Kund
Lipp
Loch
Maud
Mood
NSND
Naur
Perm
Pred
RIAA
Sidi
Solo
Spit
Timb
Tằng
Warb
code
john
land
odor
prim
quẩn
thụt
xoăn
Çank
##Instit
##Younga
##andens
##entrus
##ingway
##italis
##letico
##otyphl
##riplex
1941)
1957)
2015)
Aichi
Allah
Ariel
Bornm
Brett
Chess
Decne
Demir
Frame
Glauc
Gloch
Haven
Honey
Jakob
Kanak
Karls
Khoai
Lydia
Margu
Nolan
Polan
Riềng
Sally
Sokol
Takeo
Witch
abyss
cache
derby
himal
morph
mômen
ovata
phiếm
psych
spath
stand
##General
##Vietnam
##Voyager
##apteryx
##enensis
##eratops
##hynchus
##ocharis
##odontis
##osceles
##uloides
(2001)
Access
Anakin
Berger
Burdur
Craven
Dinamo
Edirne
Geocal
Grewia
Guyane
Howden
Hölzel
Keller
Marius
Málaga
Paulus
Robbie
Sandra
Sidney
Simone
Spider
Tinian
Trophy
Tulagi
Zurich
amazon
khoanh
pedunc
propin
sphaer
##Baptiste
##iphantes
##rochilum
(2012).
Aleksey
Avignon
Canaria
Cremona
Dipseud
Hawking
Kuching
Lessert
Library
Paradox
Perfect
Pitbull
Pseudol
Strange
Thracia
Tripura
Typhoon
Vitamin
indicus
nucleic
##aleyrodes
##omaculata
Agriotes
Counties
Deutsche
Douglass
Kırşehir
Oriental
Palencia
Pulitzer
Schwartz
Syllepte
Tiberium
Together
Vexillum
Zanzibar
discolor
hydrogen
hyperbol
##Tillandsia
Augustine
Brandegee
Bucharest
Christine
Committee
Herodotus
McDonnell
Santander
Schlesien
Sphecodes
##oglossaceae
JavaScript
Marguerite
Publishing
Uloboridae
Wesołowska
interrupta
Leptotarsus
Phengodidae
Daltoniaceae
Magnoliaceae
##8/
##Cy
##HE
##HI
##MB
##Ox
##hm
##hō
##hạ
##ír
##ôt
##øn
##ău
##đỏ
ù
##」.
##-1)
##;"|
##Ali
##Fur
##Han
##Ing
##Kir
##Liv
##PLA
##Rem
##Say
##TLD
##Xin
##abu
##ajo
##cut
##hex
##iak
##ián
##joz
##khe
##mak
##mur
##nội
##tii
##til
##tái
##umu
##uny
##wyn
##zny
##èng
##đầy
##đặt
##šov
Cn
ED
FL
FO
pu
té
vơ
##31),
##39),
##Ames
##Luer
##Moon
##Oise
##Pach
##Tang
##adai
##aing
##aits
##aras
##arrh
##biệt
##bong
##case
##cott
##ehrm
##eong
##erae
##kaku
##nano
##nera
##odat
##okan
##osse
##reut
##rome
##term
##uche
##uket
##utum
##vere
##vert
##ávez
##ória
263
299
4.3
501
57%
72%
79,
Aid
Bặc
Cyg
Dài
Fum
Gül
ICC
Jir
Luy
Lêô
NST
Osk
TCP
Til
VFF
Vạc
alc
det
dẫm
ech
equ
kHz
nấc
nập
stu
sus
wet
zon
##Henry
##James
##Prinz
##Thiết
##agasy
##chung
##eback
##enius
##ersii
##etana
##ezirk
##istra
##notes
##olver
##sensu
##silon
##sonne
##zanne
802.
APEC
Angr
Cerv
Chow
Chồn
Cnem
Deir
Dost
Dros
Earl
Epil
Fund
Ghaz
Gifu
Hain
HĐQT
Komn
Lạch
Ming
Mlad
Myth
Nhịp
Niss
Osho
Room
Sart
Shab
Spor
Szab
Tina
Umbr
Wide
Ying
banh
four
lead
lình
mann
most
oval
phys
quặc
thau
voor
vãng
##/1945,
##Bissau
##akukan
##antino
##arning
##bilisi
##etooth
##ichiro
##iferus
##imierz
##kigayo
##ophaga
(1967
1839,
1947)
1949)
1952)
2016)
Adult
Brade
Clair
Doyle
Eliot
Ester
Gastr
Hague
Heinz
Innoc
Irkut
Juana
Kaoru
Macha
Mogul
Parui
Pompe
Ramos
Roads
Sagan
Sakai
Savoy
Schrö
Soria
Start
Sturm
Tales
Turku
Volks
Woody
Yasha
Yukon
argyr
dubia
ethyl
nicot
power
pruin
quadr
ramos
sulph
tweet
##America
##anhalli
##biaceae
##enosine
##ipuncta
##letcher
##otensis
##ycaceae
Aegean
Canaan
Caribê
Carrie
Cerezo
Chávez
Creuse
Cullen
Irving
Juliet
Karach
Laguna
Mitter
Nicaea
Nouméa
Petrov
Platon
Reigns
Season
Shoten
Strabo
Streep
Tropid
Valois
Vargas
Vijaya
Welles
Werder
Yukarı
cephal
fallax
florib
florid
glycol
microm
obtusa
opioid
tonkin
walker
##aliensis
##ezbollah
##neisenau
##ophlebia
(1999),
(2011).
(2015).
Aechmea
Baranya
Chesape
Comoros
Demonax
Fashion
Fernald
Griffin
Presley
Segovia
Sleumer
Theatre
Trogoss
entropy
granite
membran
Abkhazia
Aconitum
Antilles
Borowiec
Castillo
GameSpot
Gyeonggi
Hoplitis
Prescott
Sinclair
Yvelines
borealis
concolor
marathon
tibialis
Acanthosc
Amenemhat
Beautiful
Community
Hemingway
Heraclius
Kissinger
Matsumoto
Noteridae
Rhineland
Slipinski
container
following
nigricans
verticill
Eurovision
Exocentrus
Glochidion
Radulaceae
Villeneuve
Williamson
transistor
Psephenidae
##Entertainment
Barychelidae
Dendrochilum
Erythroxylum
Muscicapidae
Chloroclystis
Geocalycaceae
Trogossitidae
##Troglohyphantes
Plethodontidae
##!”
##Cá
##GD
##pf
##Âm
##äl
д
м
##-4.
##-65
##20.
##4,5
##Abb
##Daw
##Jet
##Jun
##Lox
##Lév
##Lực
##Mec
##Nev
##Nơi
##USA
##_17
##api
##ayu
##báo
##cum
##foy
##gle
##gov
##khí
##mun
##môn
##oin
##uhl
##ums
##xây
##yas
##zcz
##zeb
##đời
-1
Cé
Zi
xx
##-15,
##5%).
##Clem
##Girl
##Pont
##acho
##adas
##aest
##auri
##awar
##azzi
##bird
##coin
##ebus
##endt
##esma
##etho
##fuss
##graf
##iday
##inac
##insk
##ithm
##kowo
##linh
##mana
##odis
##oltz
##ordi
##orii
##pell
##perm
##riqu
##udes
##unan
##ylia
##ytus
##çais
##ésie
##Định
1,0
2-2
259
291
304
336
4.4
56.
61.
64.
6–4
Aya
BMW
Dio
Hei
JEF
Khó
Khơ
Lid
Nal
Ruh
Rạn
Uch
Yal
Yek
aff
cút
far
gon
how
hặc
lys
mim
myr
mẹo
séc
Đai
Đốn
##Giang
##Light
##Power
##abase
##aguar
##amate
##amori
##annis
##asone
##assus
##efore
##errat
##iacus
##imana
##imoni
##ngium
##ochet
##thống
##ustaf
##uyuki
##works
##École
101,
1819
1842
1858
30/4
Arun
Bean
Briq
Brus
Chip
Dias
Diều
Dome
Duma
Fear
Fuch
Gobi
Gyps
HEVC
Harm
Hoth
Iber
Jaff
Jeon
Joff
Kaes
Kano
Keng
Khấu
Kier
Lviv
Maar
Mild
Mine
NKVD
Naga
Neon
Ngòi
Pali
Pois
Polt
Quất
Raúl
Ride
Seng
Sons
Soto
Spee
Taka
Tash
Trad
Trao
Trap
Tsub
Verb
Weas
Wilm
Zala
Zulu
coli
crin
nhàm
pect
penn
riết
shot
thỏi
topo
trệt
vạng
ôzôn
##EADATA
##Empire
##Greene
##Thomis
##Truyện
##atilis
##ecraft
##ichthy
##iopsis
##leurum
##ochila
##ration
##thương
##ycarpa
1869,
1872,
1942)
Anand
Anjou
Arras
Ashik
Büyük
Caill
Civil
Coleo
Donau
Eustr
Gamba
Gương
Hamas
Hasan
Irish
Kikyo
Kirov
Marus
Ochyr
Oleth
Pleop
Round
Rubin
Saale
Shing
Thamm
Tilly
Tours
Tudor
Upper
Volta
Wings
coban
compl
ngàng
obsol
venez
##Cyclosa
##Philipp
##abaceae
##ability
##ayensis
##endorff
##ignatus
##imacula
##imorpha
##olestes
14.000
90.000
Adults
Athous
Bitter
Boruto
Chiron
Circle
Cyphon
Darren
Gaston
Huawei
Lauren
Nagano
Norton
Novara
Oxalis
Paspal
Pierce
Quincy
Rights
Rousse
Screen
Stepan
Temple
Varese
Verbes
analog
cinnam
ellipt
laptop
leaves
record
script
tennis
##Fletcher
##Steatoda
##accinium
##apoderus
##ehrmacht
##ominalis
##onanthus
(1995),
Athetis
Bactria
Boarmia
Culture
Dioclet
Faraday
Heights
Isparta
Marcelo
Microch
Mikania
Moravia
Neptune
Pegasus
Picasso
Prairie
Sparrow
Stadium
Tardieu
Zlínský
basalis
catwalk
cinerea
impress
villosa
Çankırı
Atletico
Augsburg
Barleria
Bernardo
Calathea
Capparis
Gottsche
Guerrero
Hastings
IPEADATA
Kerrigan
Kumamoto
Kurosawa
Lagrange
Mathemat
Michonne
Voltaire
flexuosa
Alejandro
Katherine
Olethreut
Pomorskie
Trochidae
Wiedemann
chilensis
composite
punctatus
##ostomatidae
Archimedes
Chesapeake
Guadeloupe
Pleopeltis
Shogakukan
Spacewatch
smartphone
Astracantha
Chamaecrista
Clerodendrum
meridionalis
Beilschmiedia
Acanthoscelides
Ophioglossaceae
##"—
##BL
##UD
##UK
##VP
##XQ
##ná
##Đà
##ğı
##īn
##ła
##ло
##ụm
##-43
##-75
##103
##197
##3%,
##Alb
##Bos
##Chữ
##Mod
##Pil
##Ten
##Tri
##ník
##orz
##ozh
##ryl
##tas
##tìm
##tới
##yct
##çao
##ñez
(-
Mạ
Vẻ
WC
Za
ml
zu
ối
##-152
##/10,
##32),
##70),
##Baby
##Biển
##Brig
##Cour
##Over
##Pall
##Perc
##RIAA
##Ruiz
##Ster
##Witt
##aben
##abot
##adev
##ajan
##alez
##edin
##ehyd
##erve
##ests
##ethi
##fare
##giảm
##hoạt
##imat
##ired
##jean
##link
##lịch
##mena
##mông
##opha
##quir
##riet
##rows
##ukur
##urae
##weig
##weil
##yong
##ysan
##írez
##ügen
##ıklı
(75
1),
10:
286
292
3.4
369
376
416
55.
6-7
770
93,
Ahn
Ane
Ask
Bau
Bof
Chū
Cắt
Dir
Dne
Fou
GSM
Ged
Giữ
Gug
Ivy
Lif
Liz
Lấp
MSN
Moy
Sáp
Toc
VIP
Yêm
cụp
did
gợn
ing
law
mem
núp
nứa
rọi
sảy
vắn
Đèn
##Brien
##Salix
##akote
##asius
##asmus
##atina
##atula
##azarı
##eptor
##ethus
##icius
##icoid
##iffer
##izumi
##laena
##lecta
##ookie
##oriae
##orium
##osine
##thona
##thumb
##ulare
##unzel
##usret
##vulus
1835
Antr
Arte
Boer
Carc
Cear
Chey
Chòm
Chảy
Crus
Damm
Diet
Domb
Echo
Expo
Farr
Genn
Guti
Hana
ISIL
Jans
Kasp
Kick
Kofu
Neop
Pend
Phia
Plin
Renn
Step
Vest
Voch
Xang
Zale
cuội
extr
nháp
peri
sign
tess
thắm
tric
trợn
turn
##/2005/
##Spruce
##ambang
##endish
##igerum
##ineata
##istère
##kwondo
##olabus
##omelas
##pohlia
##ustala
##ysseus
##ásquez
1782.
1790.
1891,
2003)
Abram
Broun
Drama
Ebmer
Fight
Félix
Hydri
Jammu
Julio
Karol
Khoản
Kitty
Lamar
Liszt
Luffy
Nikki
Phiêu
Plate
Quick
Rojas
Sagar
Sphen
Sword
Thing
Yaman
acule
borne
chiền
echin
ellip
gigas
imper
nhuần
porph
shell
Ôhira
##Alpaida
##Dipoena
##anoides
##itensis
##ocaulon
##ologies
##ountain
##vention
17.000
75.000
Astron
Bergen
Capcom
Chuông
Cleome
Crosby
Energy
Gareth
Guadal
Guiana
Guérin
Hubert
Jürgen
Linden
Muller
Nikita
Podost
Prance
Quezon
Radula
Shinji
Surrey
Survey
Svihla
Twenty
Xiaomi
erythr
hispid
hydrat
pulver
##ensacola
##opetalum
##osthenes
##othamnus
(2017).
120.000
Aleksei
Almeida
Anthren
Belfast
Bullock
Caserta
Chikkab
Corbett
Eduardo
Freeman
Gyrinus
Leibniz
Mahmoud
Morocco
Musashi
Phasian
Rosario
Samurai
Schalke
Stefano
Tbilisi
Trieste
Vampire
Wernham
confusa
william
##erschmitt
Beatrice
Bertrand
Castille
Crawfurd
Eryngium
Francisc
Halictus
Infinity
Oliveira
Senusret
Theresia
Veracruz
Veronica
Zamarada
obscurus
##entepohlia
##opsychidae
Direction
Guayaquil
Madeleine
Milwaukee
Olympique
Taekwondo
Verbesina
fasciatus
Anthuridae
Diabrotica
Eleocharis
Königsberg
paniculata
Chamberlain
Furnariidae
Staurastrum
Fimbristylis
Helicopsyche
Wahlenbergia
Olethreutinae
Helicopsychidae
##--
##Om
##UM
##bH
##hồ
##pơ
##Đề
##он
##-57
##104
##14.
##90)
##BOL
##Dev
##Hir
##IME
##Lev
##Mex
##Mir
##PAC
##Pad
##Pak
##Rus
##Tòa
##Yên
##_14
##aip
##ifs
##irp
##kir
##kum
##lop
##lum
##oae
##raj
##she
##usi
##vie
##vận
##xcơ
##yam
##íng
##öll
##đổi
',
5:
7"
AE
DI
Sẽ
hả
py
##-500
##62),
##Fort
##Khởi
##Lãnh
##Pter
##Rose
##Simp
##Vill
##Vinc
##akai
##alen
##anha
##areg
##argi
##arii
##awai
##ayam
##come
##girl
##icke
##icle
##ishu
##kent
##mile
##nhof
##omba
##opop
##orei
##oval
##peri
##uder
##ulis
##unis
##unty
##urin
##vist
##ślib
2,1
246
273
302
326
346
379
386
4.8
57.
670
71%
76%
76,
Alk
Aym
Bru
Coc
Cut
Cọp
Dyt
Feu
Fée
GPU
Göl
Hóc
Isk
KGB
KLM
Khế
Kuy
Kéo
Mav
Nặm
Nữu
OFC
Pow
RAW
Rei
Ryb
SAM
Thê
Uth
VKS
Vãn
Xếp
ast
ble
boy
cot
die
dăm
gội
hắt
jac
két
nần
spa
Đảm
##Ghost
##Simon
##Triệu
##auchi
##eiman
##elieu
##enkov
##ersin
##förde
##hisar
##ijaya
##ilion
##irdağ
##itrus
##ixier
##izoma
##jakov
##kōbon
##nhiệm
##oanga
##ondon
##oshin
##ouard
##sdorf
##umbia
##ırnak
1813
Amal
Angu
Avon
Aziz
Bada
Cate
Cist
Cody
Cryp
Cunn
Dans
Depp
Diệt
Epip
Gain
Henn
Jobs
Kırk
Lộng
Makh
Mara
Mask
Mayo
Nhẫn
Niph
Phìn
Pohl
Reef
Shue
Walp
amyl
chẹn
cuốc
duỗi
hain
lọng
medi
open
styl
thòi
tuấn
vern
##Golden
##Silent
##Weekly
##adolid
##adurga
##amnium
##apuram
##avalli
##ebbels
##enland
##entata
##etalum
##ostege
##phường
##tempor
1842,
1846,
1857,
1876,
1961)
2011)
2018)
Alexa
Bauer
Beech
Berez
Boone
Dajoz
Erwin
Gadag
Ganym
Index
Iwata
Joaqu
Jolie
Kenny
Lonch
Massa
Naomi
Ortiz
Osmia
Palis
Palma
Parat
Paraí
Perez
Piano
Poepp
Polit
Psamm
Quito
Rusby
Sabre
Satan
Surat
Swart
Tanas
Ulsan
crisp
dihyd
ether
magie
ngoái
right
there
##/12/200
##Mangora
##Torrent
##arajevo
##ersonii
##icourea
##igliano
##ocactus
##ogatari
##ogramme
2005).
2007).
45.000
Angelo
Aquino
Camera
Carmel
Clusia
Copris
Fields
Fulham
Gustaf
Handel
Jasper
Kontum
Lublin
Middle
Myślib
Novell
Ozarba
Puebla
Romero
Rupert
Soares
Soviet
Spaeth
Stream
Strept
Terran
Thales
Yangon
altern
atlant
linear
person
petiol
phenol
violon
virgin
##Princess
##icifolia
##ionville
##ocryptus
##oxanthus
(2007).
African
Bilecik
Caillat
Chlamyd
Cranmer
Dorothy
Gustavo
Hayashi
Hoffman
Karachi
Lavigne
Melanie
Mendoza
Neckera
Newbold
Palawan
Pizarro
Produce
Romance
Romanov
Schltdl
Suharto
Tupolev
dentata
lanceol
serrata
##egopteris
##iangensis
Ashikaga
Bernhard
Eriopyga
Goebbels
Kodansha
Lausanne
McCarthy
Orthosia
Suleiman
Tekirdağ
Trichost
collagen
cytokine
photphat
##California
##Orientales
2004-2011
Berkshire
Combretum
Crepidium
Cristiano
Fukushima
Gottfried
Greenwich
Kołobrzeg
Polynésie
canescens
committee
Kulczynski
Valladolid
Wladislaus
panamensis
Marlborough
Philodromus
Sergeyevich
macrophylla
Gymnophthalm
Michelangelo
Mikhailovich
Trentepohlia
progesterone
Euphorbiaceae
Messerschmitt
##)、
##0)
##BP
##Kr
##Kỷ
##RL
##SH
##SR
##TF
##TI
##ği
##śl
##ед
##ой
##та
##ха
##」,
##%).
##-44
##105
##113
##139
##15)
##80)
##Bor
##CAM
##CDP
##Doc
##Giờ
##Hor
##Huy
##Jul
##Ter
##Tor
##USS
##afe
##cos
##ebi
##epi
##eze
##fak
##gai
##gol
##hiv
##ibl
##icc
##irn
##lab
##mah
##mei
##mẫu
##nek
##ogu
##pot
##rym
##tùy
##ubo
##upa
##êgô
##–40
"4
$3
4"
FN
FT
GE
PG
Tè
VA
mí
İn
##76),
##Bois
##Dipl
##Dịch
##Ferr
##Hong
##Kiss
##Marg
##Prüm
##Thật
##XHCN
##alma
##alom
##azan
##azer
##como
##dina
##emir
##icae
##ilee
##inny
##izan
##kiến
##lade
##lana
##lexa
##ongn
##orio
##orna
##pres
##pure
##tega
##teus
##ting
##trực
##ucia
##ucta
##umbo
##unin
##énér
##–199
"19
(34
(48
(69
22%
244
274
284
301
33%
333
4.2
462
64%
74%
81,
Add
Bro
Chỗ
Cầy
Doğ
Ely
Exc
FAL
Fos
Keb
Kyō
Oil
PSP
Píc
Sta
Too
Tộc
Ura
Vaz
Woj
Yom
fly
gọt
gỏi
ket
lur
lẽo
mov
mớn
pau
pir
shi
sun
sếu
đút
##David
##Nghĩa
##aigne
##alier
##alius
##ampus
##annel
##anter
##chiếc
##elijk
##ethys
##fries
##iegel
##ikini
##inone
##iplex
##lovsk
##model
##nefer
##nguồn
##nomus
##oneta
##opica
##orkis
##ports
##ragma
##redit
##rieri
##stock
##tướng
##utsal
##yrtus
##érard
1845
1855
1856
77%,
Aceh
Alag
Barc
Bene
Bohr
Bose
Cage
Cock
Cout
Door
Díaz
Elam
Fals
Giàu
Glad
Gone
HMCS
Huff
Jaya
Joey
Kies
Kohl
Mert
Nell
Nhuệ
Pest
Ping
Prob
Rupp
Sann
Sriv
Tate
Thoa
Tuva
Vong
Were
Wick
Yard
Zara
apic
chít
conn
corr
fans
giầy
gàng
hydr
neph
ngời
perc
resp
sarc
them
trầy
well
whit
##/10/19
##German
##Sèvres
##Vienne
##acalia
##adores
##aptera
##egaard
##enodes
##eynman
##icosta
##icsson
##iptera
##ithium
##ochroa
##ogonum
##omeria
##omotiv
##ozione
##rosema
##urodes
##venkov
##yptila
(1971
15-20
1768.
1797.
1813,
1815,
1874,
Akhen
Albac
BASIC
Babyl
Benev
Bistr
Bosco
Branc
Burke
Casal
Ceará
Comps
Dakar
Drôme
Everg
Exley
Galeo
Gorky
Hanna
Hayes
Intef
Ishik
Jerzy
Klatt
Marqu
Pepsi
Phryn
Plagi
Prize
Selim
Stict
Titus
Vidal
XXIII
boson
delta
fulva
gmina
picta
under
##Manning
##Renauld
##emaceae
##iglione
##ministr
##ophobia
##oseidon
##tachyum
##urillus
2006-0
Brandt
Callip
Carbon
Carson
Danzig
Dorset
Double
Edison
Flying
Gorham
Hirsch
Hyptis
Jerome
Jessie
Khoảnh
Kimber
Ladies
Leverk
Lyndon
Microm
Nepeta
Oberea
Omphal
Orient
Ostrog
Oswald
Pallas
Sekhem
Talbot
Talent
Thulin
Waters
acanth
aspart
helium
Şırnak
##Allocosa
##Cicurina
##aikovsky
##ernförde
##osmocoma
##osteroid
##otrichia
(2005).
Barbuda
Bitburg
Corsair
Curaçao
Goodman
Herrera
Irkutsk
Karelia
Maximus
Perugia
Pharaoh
Picture
Ptolemy
Pushkin
Reading
Surigao
cordata
gracill
lineata
parabol
perplex
pygmaea
sericea
##anthoides
##omataceae
##shanensis
Charlton
Cucullia
Ericsson
Ferreira
GameCube
Imperial
Language
Libnotes
Marianne
Odysseus
Pouteria
Reinmuth
Sportiva
flavipes
tankōbon
##arayapatna
Angraecum
Cavendish
Digitaria
Evolution
Magdalena
palustris
##Draconarius
##Heliophanus
##ocephalidae
Bruchidius
Dicranella
Eupatorium
Rothschild
Sophronica
natalensis
Dichochrysa
Laccophilus
Smilacaceae
longicornis
##Neolophonotus
Chiloscyphus
Jungermannia
Podostemaceae
philippinensis
##2;
##?”
##Iv
##Kỳ
##Mã
##Xô
##ât
##ôx
##ƯT
##ки
##ом
##ẽm
ư
##-37
##136
##7-1
##Bah
##Cow
##Cry
##Cần
##Cửu
##Hồi
##Hữu
##Maj
##Pir
##_1,
##_1.
##abb
##amá
##bey
##cải
##dag
##eix
##gil
##jær
##kíp
##lực
##mán
##mọi
##mục
##ném
##nền
##nổi
##sec
##sức
##tri
##zii
##éra
##ínc
"*
6:
8:
DE
DK
RE
Rê
nỉ
sả
tw
tề
vè
xổ
##-10.
##-105
##17),
##21),
##Barb
##Cuat
##Cunn
##Cánh
##FIFA
##Gill
##Graf
##Hack
##Hipp
##Laph
##Phan
##Sang
##Spec
##Tech
##Verb
##aeli
##agma
##agua
##alpa
##anae
##arie
##atit
##avou
##bass
##cánh
##enec
##exia
##film
##idai
##inot
##isen
##khoa
##khối
##ngựa
##olcs
##onie
##opep
##para
##tông
##ubin
##umal
##unku
##usha
##vara
##vượt
(6.
283
287
296
3,0
385
414
48%
512
56%
6.2
68%
84,
9,5
ATV
Apl
Caj
Cua
Cữu
Enz
Hầm
IPv
Inv
Ito
Kuw
Lef
Lux
Lái
NXT
Nét
Nắm
Paw
Rez
SIM
Tis
Tus
Tận
Ulm
Umm
Vải
bow
cyc
cảo
dex
hăm
iốt
kab
mah
mak
ngớ
ppm
rợn
sua
sài
vul
##Belle
##Berry
##Chiếc
##Malay
##Neill
##Tiger
##andom
##ashir
##asina
##atali
##aucas
##blyna
##enice
##essor
##estic
##esugi
##etime
##inica
##inois
##ledge
##ogyna
##omima
##ophen
##oprop
##ority
##orter
##oyuki
##phana
##pires
##tuyến
##undum
##utnik
##yphia
(130
(168
(182
(300
1834
3-1.
ARIA
Bott
Bust
Chos
Cymb
Dara
Eber
Epis
Espa
Gees
GmbH
Gron
Hygr
Ipir
Kend
Khẩn
Krai
Lapl
Luka
Mint
Muội
Nils
Niết
Pare
Phyl
Quắc
Rung
Rạng
Saqq
Sold
TVXQ
Trig
Trăn
Tver
Uruk
Vahl
Vita
bari
beat
desc
diệc
head
left
link
ngan
nick
rông
sinu
thản
trọc
##Bremer
##Synema
##aricus
##change
##ements
##estrum
##itanie
##olepia
##olkata
##onotis
##ontana
##oxylum
##perzia
##rensis
##schaft
##ylepis
##édéric
(1950
(1983
(2011
1802,
1815.
2012)
2013)
Abbey
Accra
Admir
Alten
Alves
Amber
April
Aspal
Autom
Aşağı
Bangs
Belis
Chinn
Crane
Crazy
Dolby
Eocen
Grass
Grêgô
Gupta
Hazel
Holub
Khước
Kwang
Kylie
Küçük
Lines
Liège
Malik
Mayer
Month
Myers
Nuevo
Olios
Pyong
Pınar
Rosie
Shosh
Sindh
Strel
Sugar
Swiss
Syrac
Taeni
Tomas
Velik
Welsh
amino
frame
games
lepid
level
mafia
mácma
trach
triện
##Britton
##actidae
##ephalus
##liptera
##ocrocis
##otaenia
##phyllum
##uiensis
##ymoites
(2015)
16.000
2009).
2010).
22.000
Albany
Alexis
Allard
Androm
Arturo
Cacbon
Callas
Crater
Ctenus
Deport
Diesel
Fowler
Heaven
Hewitt
Honshu
Hradec
Jenner
Kirill
Nakane
Pepper
Phymat
Sacram
Schenk
Sutton
Sylvia
Territ
citric
client
direct
family
flavon
kommun
produc
thorac
##ermessus
##ological
##otheidae
(1997),
(2009).
Benoist
Beverly
Cecilia
Chandra
Dominic
Ecnomus
Heather
Kensley
Marusik
McLaren
Michele
Minerva
Molokai
Podlech
Seconda
Shirley
Tolstoy
located
simplic
##Beautiful
##andraceae
##endraceae
Agapetus
Albacete
Aristida
Brignoli
Centauri
Dassault
Ilyushin
Julianus
Mallorca
Perizoma
Plagioth
Rousseau
Sarajevo
gradient
montanus
perrieri
positron
scandens
tropical
Aphrodite
Astrakhan
Bluetooth
Cornelius
Dominique
Hezbollah
Hurricane
Impatiens
Ivanovich
Schindler
Syrphidae
Thessalon
japonicus
lateralis
saxophone
Battambang
Constantin
DreamWorks
Leverkusen
Palicourea
Regensburg
gracilipes
Dolichopeza
Hyposmocoma
Megapenthes
Phegopteris
Ulaanbaatar
Viktorovich
Syngonanthus
Rhacophoridae
Platystictidae
##4]
##CG
##Da
##Là
##Op
##lễ
##vũ
##ío
##øy
##üg
##ăc
##ру
ó
ứ
中
##%20
##/15
##/7,
##107
##109
##135
##184
##?""
##ASE
##Def
##Kho
##Lau
##Now
##Phr
##SiO
##Two
##Tôn
##VII
##Web
##adz
##aei
##akt
##aua
##awl
##chị
##cần
##ehl
##gic
##had
##hát
##lap
##mos
##mối
##nau
##new
##ovy
##phê
##sud
##sum
##ulk
##yck
##zko
##üce
##ühl
(=
7:
8)
Aq
ER
GW
JR
Lí
Má
OP
RD
TQ
VR
há
Ảo
##皇太后
##-64,
##10),
##80),
##Anne
##Bern
##Book
##Conc
##Hock
##Laur
##Magn
##Proc
##Trên
##ably
##aith
##amol
##apol
##appa
##arou
##atai
##ayla
##burt
##chak
##dard
##eham
##enso
##etan
##giới
##grav
##hler
##ibol
##icer
##igno
##ilyn
##ipas
##irex
##jack
##jana
##kích
##lino
##nach
##naya
##omol
##onin
##orni
##pháo
##ribb
##sách
##sống
##tegr
##thất
##unde
##unik
##urav
##đỉnh
(8,
(85
12:
15;
294
334
337
341
342
399
429
476
58%
61%
62.
639
667
98%
AIM
ANC
Acr
Baş
Chō
Cro
Cyt
ESP
Ehr
Elo
Fug
Für
Gap
Gou
HTT
ITV
Kog
Kük
Lia
RPL
Sét
[1]
ash
bry
bốt
fol
gor
moi
mos
mọt
nhé
ran
tép
xôn
##Haute
##Lương
##Santa
##Trich
##Weber
##achos
##aghan
##araja
##assic
##astis
##astro
##athes
##auser
##ccTLD
##chain
##chant
##ensin
##ermes
##hướng
##ibana
##ideum
##ineas
##inius
##ionia
##irect
##ispin
##itomo
##itsky
##linka
##oleia
##oniae
##onsan
##ortal
##ostak
##pirin
##quier
##uddin
##unari
(142
1.00
78%,
Area
Buri
Caec
Cald
Cheb
Chạy
Chịu
Clav
Clif
Date
Diaz
Dust
Enix
Fenn
Guar
Kais
Khảm
Loki
Luôn
Lưỡi
Moul
Nieu
Pond
Rasp
Salz
Saur
Stir
Tank
Trem
Trim
Trẫm
Urdu
Vard
Welw
best
chan
ferm
flag
half
hart
hisp
miến
myrt
nhão
prom
scut
serp
siam
some
taur
tern
walk
wing
##Carter
##Herzog
##Mobile
##Spreng
##alisco
##anchum
##ansson
##azzano
##bertii
##erlock
##ermont
##inders
##oceras
##omedes
##oppler
##outube
##phania
##risser
##ropoda
##theria
##ujillo
##unting
##íncipe
1772,
1787.
1832,
1944)
1946)
Andal
Anopl
Atari
Braga
Cauca
Chuối
Coimb
Couss
Elton
Epiph
Flame
Gianh
Giant
Guild
Horik
Inuit
Khiếu
Level
Lilly
McKin
Meisn
Might
Nauru
Notre
Owens
Ranch
Rioja
Rouss
Sandy
Sawan
Shawn
Sympl
Taman
Totti
Trent
Tutsi
Yusuf
align
dilat
fluor
fusca
ghềnh
green
group
heavy
rương
sanct
tuông
where
##Cuatrec
##ataliwa
##aterial
##iopogon
##uttatus
Bofors
Bonnie
Brahms
Bureau
Cayman
Cissus
Creole
Cristó
Dufour
Fermat
Frisia
Friuli
Grozny
Khlong
Mazowi
Mickey
Motion
Osiris
Phanom
Purvis
Ramsey
Return
Schmal
Snyder
Takumi
Tarrag
Tennis
Theory
Uesugi
amphoe
benzen
during
exilis
heroin
hirsut
inaequ
jamaic
minima
number
platin
##Independ
##Thomisus
##itchfork
##odictyon
##stroemia
Aksaray
Alfredo
Ardèche
Bosmans
Buriram
Camille
Centrol
Chinese
Conserv
Fortuna
Genesis
Giacomo
Gustave
Helicon
Manetho
Martino
Mayenne
Million
Mindoro
Mustang
Natasha
Potomac
Proctor
Romanos
Saqqara
Sinatra
Transil
castane
confert
inermis
sapiens
##Lexington
##Something
##Trachelas
Bellmare
Federico
Ganymede
Malagasy
Matthias
Oberonia
Paspalum
Peterson
Pomorski
Richland
Thwaites
download
lineatus
margarit
nigripes
robustus
tubercul
Aizoaceae
Akhenaten
Benevento
Caladenia
Dominican
Finistère
Lokomotiv
Myślibórz
Nordrhein
Patterson
Telegraph
Valentino
Wallachia
histamine
transvers
##Eckernförde
Bernardino
Dicliptera
Fiorentina
Hydriomena
Lamprosema
Mauritanie
Promozione
Tournament
Triaenodes
macrocarpa
population
Championnat
Performance
Tanasevitch
Tchaikovsky
Colchicaceae
Hyperoliidae
Trichostomum
Velloziaceae
purpurascens
Calamagrostis
Calophyllaceae
Rhynchostegium
Channarayapatna
##)/
##IU
##NR
##Ou
##Vi
##WC
##dō
##си
##ều
ب
ỷ
##),"
##-41
##-5,
##-7,
##102
##132
##ABC
##CAP
##Cur
##Dem
##Duc
##Ill
##Kin
##Mọi
##Mỗi
##Quả
##Rec
##Suz
##Thơ
##Try
##Tài
##cea
##dai
##dok
##già
##iav
##iej
##ijn
##jus
##lập
##lợi
##may
##von
##ysa
##ğde
##šić
##Ước
AH
AJ
BK
DO
Dv
FX
Kę
MR
MT
Mà
Mỗ
Oy
Pơ
Vf
Vò
WB
WI
XH
Zw
đự
ổi
##-104
##-12.
##13),
##27),
##Dôme
##Flor
##Hard
##Linh
##Link
##Molt
##Spin
##That
##Trin
##addy
##airs
##alat
##amae
##arty
##bian
##băng
##comb
##eleg
##emur
##enan
##enig
##eric
##esca
##evsk
##ghur
##giây
##houn
##htun
##icio
##idze
##ihal
##imba
##ined
##iven
##ivir
##ivka
##kido
##mong
##nard
##onen
##osem
##oxic
##pect
##rico
##riel
##roqu
##rosc
##vald
##zyce
##énez
##ôxôm
##Điểm
##Đừng
(70
(76
1/8
11:
267
271
289
445
533
59%
88.
99%
AMD
Aki
Bio
Bua
CFA
Dee
Eli
Equ
Fag
Gek
Gru
Gói
Gör
Hòe
Ios
Ips
Kia
Koi
Mou
Nid
Phò
Seh
Sos
Sot
Vib
Wür
abr
bog
cáu
dặt
gra
lùa
mid
mis
mit
nhẽ
now
nài
rou
sod
vỏn
đẽo
Łob
##Blood
##Cerat
##Daily
##Macbr
##Ngoài
##Night
##agena
##ament
##antis
##antus
##ashin
##asman
##awati
##bergi
##berti
##etaph
##foret
##ibald
##icina
##iglio
##igner
##isoft
##itima
##lytus
##music
##odore
##oizat
##oluta
##omura
##onite
##onnet
##oplex
##oscir
##ottky
##posit
##riano
##seong
##state
##ubert
##ubuki
##uchea
##ührer
(136
(146
1832
1851
1852
1854
75%,
Acre
Ades
Alma
Aron
Atom
Bett
Body
Chic
Chus
Come
Dasy
Duty
Epig
Fine
Frig
Geum
Geun
Grab
Kaen
Khar
Kiềm
Kvit
Lech
Lùng
Masc
Mona
NTSC
Nguỵ
Ogas
Pilg
Scho
Scyt
Seki
Shil
Stol
Teuc
Tmes
Trào
Tutu
Veng
Vier
Warm
Zack
bừng
calo
drum
funk
infl
late
like
ling
nhòm
pelt
pull
subl
toái
tràm
trát
tành
##/2007,
##Angelo
##Arabic
##Connor
##Moltke
##agiata
##aguchi
##ashiro
##azygia
##berger
##embang
##eridan
##etland
##gerald
##ificus
##illian
##ogenes
##othele
##refour
##sephus
##ustadt
##wingli
1786.
1820,
1821,
1877,
1951)
Alger
Barcl
Camar
Cerop
Clare
Coryl
Devil
Dnepr
Druze
Eclip
Encel
Fermi
Ferry
Gelis
Glory
Gorod
Hogan
Hogna
Huber
Jesús
Kaito
Kanye
Katip
Lions
Lucky
Minne
Nelly
Niğde
Noord
Petra
Prost
Sever
Shock
Sousa
Souza
Stage
Torah
Trade
Usher
Visig
alata
altic
bract
bướng
champ
clark
ester
mêtan
phyll
prote
urban
xuyến
Çamlı
##anthias
##ephoros
##eratina
##iazione
##ifswald
##lotzsch
##ongkorn
##opleura
##valbard
(2000)
2007-0
2008).
Achaea
Agency
Alicia
Barros
Bering
Bieber
Bilbao
Bourne
Bulgar
CHXHCN
Chandr
Cherry
Cleist
Delphi
Friday
Greenm
Guitar
Hearts
Hoehne
Kodagu
Madame
Meliph
Merino
Mitrom
Mugabe
Police
Python
Rendle
Rising
Sharif
Smilax
Telugu
Travis
Trevor
Turrit
Vassil
Vyazma
append
approx
karate
kimono
piston
recurv
robust
sessil
##ianthera
##ineensis
##isternus
##ophallus
(1993),
Albirex
Barrion
Boheman
Burnley
Coleman
Contest
Dickson
Dracula
Empires
Eudonia
Eunidia
Evangel
Freddie
Gerhard
Gwangju
Harvest
Henrard
Jalisco
Kaesong
Kashiwa
Marxist
Mathias
Ormosia
Pioneer
Saitama
Santana
Silicon
Tachina
Weasley
Without
anomala
brunnea
nervosa
##Alopecosa
##Friedrich
##Promachus
##friesland
##ocampylus
Assassin
Caligula
Greatest
Grêgôriô
Highland
Holstein
Liveshow
Mniaceae
Príncipe
Rapunzel
Rhodesia
Scoparia
Scottish
Sheridan
Shueisha
Srinivas
Szabolcs
Thatcher
keyboard
##Chrysometa
1.000.000
Admiralty
Alzheimer
Arunachal
Dalbergia
Justinian
Litsinger
Philippin
Salisbury
Stereodon
Tarragona
Volutidae
Yamashita
Zamboanga
##Philippines
Acalolepta
Andronikos
Aspalathus
Commission
Cunningham
Langrisser
Zimmermann
versicolor
Ammotheidae
Corydalidae
Cystiscidae
Gentianella
Longitarsus
Oldenlandia
Prosopocera
abdominalis
spectabilis
stenophylla
tonkinensis
Diocletianus
Leptonetidae
rotundifolia
Siphocampylus
Communications
##/,
##3:
##Ko
##Ky
##Ob
##bê
##cố
##rt
##vệ
##äu
##Đã
##ав
##-49
##1.0
##125
##151
##3-1
##5%)
##ATP
##Chú
##End
##Hợp
##Lim
##Mem
##Nem
##Ple
##Tim
##Ver
##cei
##fen
##giữ
##ifl
##kei
##kyū
##lại
##már
##mức
##nên
##opy
##ozo
##phù
##seo
##ucl
##upt
##uzu
##vil
##wil
##ymi
##čić
##Đơn
3/
9)
EL
Pô
TX
Tř
[5
ib
ju
Šv
##")..
##-19,
##14),
##2000
##Eury
##Full
##Gilg
##Giấc
##Glor
##Home
##Isch
##Poir
##Rain
##Real
##Wild
##agad
##alic
##alka
##arsa
##ashq
##athy
##brev
##card
##deen
##eces
##ekal
##ench
##eret
##grad
##ibus
##icky
##ifel
##imin
##itat
##lini
##name
##oara
##obyl
##ored
##phum
##rios
##spar
##tiến
##usan
##vaal
##yric
##yron
##ónio
##ская
(42
16:
272
311
324
348
353
363
367
393
3–0
4,7
4-2
4.6
5,2
525
590
6.8
620
73,
75.
78.
ALF
BTR
Bub
IPA
LHP
Lãi
Lạm
Mał
Mub
Ngo
Nus
PVC
Phl
RTS
Rạp
SMS
Sog
aeg
aux
dal
dam
dãn
ens
eph
inh
kat
leh
lud
mân
mầu
pel
pit
rom
tit
táp
túp
xui
úng
Đak
##Harms
##Litva
##aline
##alism
##anhão
##antum
##arman
##assar
##assis
##ayyad
##brunn
##ennan
##erick
##erita
##eslau
##farin
##idase
##ihito
##iment
##ippur
##irhip
##khand
##lesia
##mandu
##merod
##oburg
##opera
##ories
##ornia
##ostus
##psala
##raina
##ranos
##ripta
##ritus
##ropha
##utaka
##viron
##xcơva
(159
(500
10,5
1837
1839
6–1,
7.62
Acid
Aeth
Ankh
Aust
Avic
Baha
Bani
Boom
Café
Crun
Davy
Duck
Fool
Glyc
Golf
Have
Heat
Hera
Hort
Hulk
Hume
Hống
Isch
Kank
Karp
Luga
OECD
Paph
Perl
Pius
Quir
Riet
Siam
Sidd
Simm
Stau
Thun
Till
Tiển
Tosh
Toái
Tràm
Tuil
Wave
Wish
baht
chòi
còng
gent
hast
húng
kang
laet
mell
pard
prod
ruth
scal
sửng
tanh
tong
tort
##Aquila
##London
##Thương
##Wright
##abella
##baltic
##chewan
##eliana
##enteen
##epeira
##ilight
##indale
##inette
##iniata
##istyla
##macoce
##patine
##phylla
##server
##uttata
##ycerus
##ypogon
##yptera
##ápagos
(1912
(1945
1781.
1785.
1814,
1855,
2019)
3.200
Apink
Asuka
Aulon
Basic
Brack
Cesar
Cliff
Cobos
Croix
Ebert
Libre
Luper
Lênin
Malin
Malme
Noble
Piece
Platy
Polym
Radcl
Rouen
Spark
Strig
Teddy
These
Toyot
Walsh
Wrang
arbor
atric
aurea
carol
dehyd
flamm
gượng
karst
loang
quyệt
separ
serie
##adaceae
##dington
##elaphus
##illidae
##istigma
##nhausen
##oleptus
##ophidae
2006).
Angels
Auster
Bombay
Bombus
Breton
Caball
Chance
Chanel
Chinch
Cicero
Curran
Dubrov
Edmond
Fatima
Ferula
Freddy
Heller
Ipiros
Jensen
Latium
Leioth
Lisboa
Madras
Mughal
Petrie
Phuket
Purple
Saskat
Stones
Vulcan
Wallis
Xestia
armata
circum
colomb
format
pectin
reggae
##Selenops
##aculatus
##iotensin
##ipodidae
##obatrach
##phoridae
(2015),
Abruzzo
Bayburt
Bitcoin
Cestrum
Cryphia
Desidae
Dragons
Exochus
Feynman
Furious
Gironde
Gudenzi
Harrier
Justice
Melanth
Navarro
Neumann
Oakland
Ormerod
Pearson
Polhill
Ponomar
Rodgers
Tacitus
Thaksin
Ubisoft
Userkaf
Zwingli
hookeri
obovata
officin
ribôxôm
##accharide
##alongkorn
##nationale
##ocephalum
##ofasciata
Adonisea
Advanced
Asperula
Atriplex
Chamaele
Mannheim
Mitridae
Montréal
Octavian
Pershing
Richards
Security
Syracuse
Trujillo
brevipes
consider
violacea
##Palatinate
Ageratina
Asellidae
Bupleurum
Callirhip
Cynanchum
Kagoshima
Ogasawara
Palpatine
Promachus
Rodrigues
Schrottky
Ventforet
Zamiaceae
adenosine
elongatus
rupestris
##Castianeira
Geographic
Georgetown
Jayavarman
Microlepia
Nikephoros
Providence
Pythagoras
Sacramento
Spermacoce
Tautenburg
Xiphocentr
angolensis
nepalensis
phosphoryl
Calophyllum
Raphidiidae
Selenopidae
Stenotarsus
Isopterygium
Orthotrichum
Professional
Technologies
Transilvania
Middlesbrough
Aleksandrovich
Calopterygidae
Zygophyllaceae
Trachelipodidae
##Cả
##FE
##Kl
##OK
##Oz
##VJ
##Ví
##dn
##kỷ
##tờ
##çi
##ço
##đế
##га
γ
##/08
##110
##174
##192
##193
##30,
##AIR
##Ale
##Aud
##BNV
##Ben
##Bàn
##Cây
##Dyn
##Eth
##Hav
##Led
##Lor
##Mik
##Nik
##Rap
##Tấn
##WHO
##_2,
##amt
##cip
##eed
##eha
##eow
##fac
##hàm
##jug
##leh
##myō
##mũi
##sid
##sto
##tix
##web
##wed
##zek
##ßen
##èle
##örk
##ütt
##ени
"3
7;
BD
FE
Fo
HR
Iğ
JA
Jú
LD
LM
Pá
bớ
vó
##,000
##16),
##24),
##77),
##Beau
##Caes
##Carl
##Come
##Dead
##Gott
##Jenk
##Ling
##Mans
##Talk
##Tiêu
##ULRO
##afal
##alid
##alyx
##antz
##anza
##asca
##ased
##asio
##atio
##enea
##engo
##fact
##fore
##hiya
##indo
##kiểm
##ocom
##otan
##pack
##prom
##quay
##shot
##thel
##udis
##ukin
##unce
##xell
##öprü
##ışla
(7.
(79
0-0
278
288
2–0
2–3
307
309
321
322
347
4,8
402
5-7
69%
7,7
7-8
77%
86,
Bữa
Chè
Cẩu
Dot
Eye
FPT
Flo
Fok
Hél
Juz
Lei
Ley
Lúa
Lũy
MDC
NAS
Nut
Okh
Quạ
Sầu
Sớm
Tez
bad
cun
dốt
hâu
hằn
ple
sph
urê
wat
xỉu
Đòn
đớp
ươi
##/1999
##Chung
##Essex
##Fourn
##Quyết
##Steud
##Sweet
##Under
##adena
##ampur
##ancer
##arsec
##ateur
##brook
##eburg
##eckie
##ellen
##iburg
##ionic
##itung
##oraph
##ougou
##plete
##unced
##ysses
##zilla
##ützow
1.16
11.0
2030
Anpơ
Arkh
Arti
Bisc
Blau
Bukh
Bulb
Bụng
Cair
Clus
Cori
Corr
Dame
Dill
Ding
Dool
Fres
Gasc
Guan
Gươm
Hara
Hegg
Heis
IAAF
Isid
Juve
Kalm
Kira
Koss
Maes
Masa
Mull
Nghê
Niet
Oerl
Ohwi
Phen
Piaz
Prev
Rong
Saff
Sett
Sinn
Svet
Symp
Temn
Thon
Thyr
Trán
Tula
Twin
Unit
Vida
aeth
anis
case
chao
cock
diếp
harp
herb
imbr
laxa
leaf
list
loát
many
near
poll
pycn
rùng
subd
subm
vani
visc
zero
Đước
##Betula
##Hieron
##Italia
##Joseph
##alamus
##aleigh
##amptus
##angana
##auchen
##ayette
##chương
##eleman
##ellite
##enario
##giella
##ibirsk
##isetum
##oaster
##olocha
##omatic
##oonops
##orista
##phrine
##rdenas
##uctase
##watini
##wright
1875,
1950)
Blind
Chenn
Daisy
Darth
Dekis
Flora
Genji
Glaph
Hanoi
Jaian
Kerry
Khufu
Kondo
Korat
Lopes
Marta
Masan
Murat
Nevel
Nigel
Novak
Olsen
Osamu
Pinto
Podol
Prach
Prado
Pyrrh
Romeo
Sales
Sigma
Solsk
Spike
Stall
Synth
Telem
Veron
Yucat
areas
atrop
carin
consp
death
muông
praec
puber
rufus
scler
young
##Micrath
##Musashi
##Stevens
##acillus
##allapur
##anopsis
##elsbach
##icuspis
##oplusia
24.000
Benson
Campob
Chrome
Condon
Damian
Dionys
Eucera
Gotham
Hermes
Indies
Jacobs
Karnak
Madara
Moesia
Nassau
Nickel
Nights
Parall
Paxton
Produc
Pyeong
Schinz
Songkh
Spence
Summit
Suther
Teatro
Teruel
Tixier
Wilbur
Yersin
Zhurav
cortic
dispar
gallon
lactic
lucida
metric
nigroc
nigrom
nitens
nitrit
##Nesticus
##hynchium
##ographic
##oscirtus
##otriches
(2016),
Adamski
Antonia
Avenger
Centris
Christa
Dunkirk
Dysdera
Emerton
Hammond
Kaufman
Lampard
Laplace
Limonia
Machado
Münster
Natural
Paraíba
Paulian
Pittier
Premium
Purcell
Sanchez
Shakira
Sisters
Tinodes
Treviso
Ucraina
Visayas
between
formosa
##idactylus
Akatsuki
Boulogne
Building
Cristina
Ctenitis
Eswatini
Maranhão
Mysterio
Neustadt
Poseidon
Teucrium
Vercelli
coriacea
neglecta
paradoxa
rupicola
##Micrathena
##ophthalmus
##ostakovich
Asclepias
Babylonia
Bagration
Enceladus
Fairfield
Financial
Galápagos
Guatteria
Hahniidae
Messenger
Patagonia
Pribaltic
Trifolium
Wollaston
Yamaguchi
uniformis
##Battlefield
##Habronattus
Campylopus
Castilleja
Dendrophth
Philonotis
Sapotaceae
Vlaanderen
pallescens
polymerase
Angiopteris
Calceolaria
Justinianus
Lipotriches
Porphyrinia
Scotopteryx
Srinivaspur
Littorinidae
Saskatchewan
Thessaloniki
heterophylla
Calyptranthes
Dendrobatidae
Chamaeleonidae
##!,
##!.
##CI
##GH
##Vị
##Xa
##iô
##tơ
##vy
##zō
##ës
##ım
##ło
##ỡi
##ựt
ε
三
##"</
##').
##-0,
##1-1
##450
##5,5
##601
##801
##Cậu
##Dig
##Hit
##Hom
##Kol
##Kum
##Mes
##Nay
##TAO
##Tol
##Toy
##aal
##avn
##cục
##dẫn
##ecl
##fel
##fon
##isu
##ivu
##jam
##khả
##kou
##kts
##kup
##odu
##rốc
##vez
##ysc
##ysz
##yêu
##äll
##ätz
##çon
##ąbr
##ček
##ера
$.
4;
BE
EN
Ei
FD
GD
Hs
Jh
Lj
MY
OL
TD
Tì
dó
fu
nả
ut
##"").
##28),
##66),
##86),
##90),
##Andr
##Buch
##Camb
##Chim
##Diam
##Fant
##Hero
##Hubb
##Hunt
##Khâm
##Line
##Miến
##News
##Ober
##Seyd
##Soul
##Team
##Tống
##Walk
##Wulf
##acab
##acas
##agab
##agia
##amps
##apia
##asii
##aulf
##bảng
##elta
##emos
##enya
##eroy
##etit
##foot
##greg
##heps
##high
##ibon
##ilip
##inkl
##irah
##kala
##lund
##orgh
##quản
##quần
##rane
##rech
##rieg
##sina
##sine
##spin
##thus
##thủy
##ubal
##ussy
##uted
##zumi
##édér
##ówka
(46
(55
(66
05°
11)
1⁄2
2,0
21:
3",
344
3–1
4,3
515
63.
630
Ala
Ami
Ayy
Baj
CAF
Dac
Fro
Hẻm
Ith
Jod
Koy
Kup
Lạn
Mio
NPC
Ozu
RFC
Ror
Râu
SPD
TNT
Tấu
Zaw
[10
arb
asc
bậy
cyp
ete
lox
lug
lụi
mải
nav
nộm
obl
pav
rex
sak
som
sop
thồ
tòi
áng
đọa
##/8/19
##Brach
##Bunge
##Dolom
##Fisch
##Hemsl
##Seine
##Stone
##Total
##abine
##aldia
##alpus
##annab
##aphne
##attis
##eberg
##edium
##eleum
##erata
##estum
##icker
##icord
##idura
##iguus
##legra
##linek
##oleto
##phium
##ropol
##shine
##trắng
##umpet
##uvius
##ypsis
(12,
1,25
1/10
12,5
1826
1853
3–6,
73%,
Agon
Alle
Ameg
Beni
Bolb
Cain
Citt
Coco
Cola
Daun
Dein
Even
Gett
Giấc
Hank
Harz
Heck
Hire
Homo
Horr
Isle
Jhar
Korn
Leme
Leng
Linz
Mate
Mist
Mohr
Muhl
NSƯT
Only
Orin
Parn
Pará
Phre
Rudd
Shch
Shun
Sobe
Sobr
Thir
Toba
Vaux
Voll
Vách
Zhou
acry
chum
chần
erem
free
khóm
mich
norm
tars
torr
tánh
tôpô
##Blanco
##Latinh
##Lützow
##Schulz
##Truyền
##chuyên
##deburg
##enaica
##ibasis
##icinct
##inhold
##mental
##onotus
##orchis
##ostria
##otrach
##owskii
##pharis
##thượng
##ushing
##walker
(1968
(1975
1789,
1822,
1853,
1878,
2.600
Almer
Antio
Bayan
Benoy
Canxi
Chint
Dolly
Edmon
FULRO
Fairy
Gagea
Gladi
Gürke
Huang
Iğdır
Jäger
Karin
Khiên
Leach
Leont
Lycée
Marek
Merit
Namco
Oster
Pauli
Perib
Preah
Rizal
Scots
Solom
Sonny
Taiti
Triện
Udine
Whitt
Wigan
griff
irreg
kiểng
lutea
minus
ventr
České
##Simpson
##acteria
##anolone
##attleya
##ectidae
##edonica
##eletier
##itticus
##kiewicz
##odontia
##oedemia
##oniella
##ophorum
##pellier
##ranthus
##shausen
##uginosa
##ějovice
2017".
Andros
Apulia
Archer
Cobain
Colost
Corner
Frisch
Groves
Hammer
Hessen
Holden
Kleist
Kuiper
Levine
Lycosa
Malfoy
Medell
Mirror
Naudin
Opisth
Panamá
Perdic
Pontos
Rhythm
Riyadh
Robson
Shonan
Yoshin
balans
daimyo
nơtron
rugosa
theory
Švihla
##François
##Seydlitz
##abarovsk
##adelphus
##adendron
##ingensis
##notified
##ochlamys
##rifolium
(2001),
António
Badajoz
Doppler
Dreyfus
Flavius
Haibara
Hokusai
Kolkata
Krasnoy
Kvitová
Logunov
Marques
Nirvana
Pellegr
Phalanx
Picidae
Shinoda
Sputnik
Taeyeon
Tikader
Tristan
Walther
debilis
karaoke
porphyr
sanguin
synthes
##osauridae
Achilles
Atlantis
Dekisugi
Fountain
Gonzalez
Holmberg
Huperzia
Industry
Komnenos
Masamune
Murakami
Neferirk
Official
Pannonia
Partners
Visigoth
argentea
costaric
kamikaze
truncata
Anobiidae
Blanchard
Cardamine
Carrefour
Costaceae
Dartmouth
Desmodium
Dysphania
HollyHock
Wilhelmsh
Wolverine
Worcester
attenuata
fimbriata
phosphate
siamensis
Gyeongsang
Mitterrand
Phrurolith
Shevchenko
aurantiaca
floribunda
pauciflora
Arachniodes
Aristoteles
Bulbostylis
Cebrionidae
Emberizidae
Leptogaster
Nagamangala
Typhlopidae
Artiodactyla
Nikolayevich
Transylvania
Chikkaballapur
Cybocephalidae
Calceolariaceae
##7/
##Hg
##Ix
##MR
##PF
##TB
##VO
##];
##kỹ
##lỗ
##și
##уб
##าน
##ứu
ỉ
##-6,
##-87
##121
##129
##2-1
##250
##321
##86/
##Ald
##Aut
##Bec
##Bol
##Bát
##Dub
##GDP
##Ger
##Hip
##Hok
##Liu
##Lúc
##Lạc
##Mid
##Nob
##Sài
##TVT
##Tạm
##_18
##bua
##coe
##dah
##dấu
##eks
##huy
##ilh
##irh
##izo
##jón
##kéo
##mod
##nae
##opf
##ozi
##phá
##tev
##upi
##uzh
##xấp
##zef
##āna
##–24
(/
(‘
7)
Bể
Dé
EB
Fw
HA
JF
Lọ
Lự
Oj
RI
Sí
Tl
Uk
ay
if
jo
lẹ
mõ
ny
og
##-17,
##11),
##Hoài
##Hưng
##Mary
##Mett
##Petr
##Tạng
##Wars
##Wolf
##afar
##aini
##akum
##alai
##aoka
##aryi
##bana
##bánh
##caph
##cảnh
##elva
##emba
##enay
##hian
##hime
##hood
##iero
##iköy
##issi
##itin
##itty
##iusa
##ivil
##ivus
##nguy
##nhìn
##obil
##ocks
##oday
##oped
##orts
##outs
##repe
##reys
##rift
##riya
##ruhe
##súng
##tero
##tsov
##yler
##ymma
##ynet
##đoạn
21%
231
237
253
264
3.8
317
339
378
404
426
47%
478
486
4–5
5),
5,4
5,7
5-1
5.6
502
545
581
62%
6–3
730
BSD
Cày
Cơm
Fad
Gaj
Gok
Guo
KCN
Ket
Khự
LDL
Lae
Mầm
Nie
PCI
PPP
Pob
RMS
Rae
Rào
Sté
Sìn
Tửu
Uta
Voj
WTO
Xảo
Zid
cir
coc
cri
dys
dát
fig
haw
hộc
hức
lào
lạt
nil
nut
nặc
rum
rèm
rẩy
thớ
típ
##/5/19
##Amaur
##Bereg
##Hiern
##Rubus
##Score
##Trans
##Turcz
##Zodar
##abalu
##acier
##aemya
##algud
##alpur
##argau
##arten
##astel
##atine
##bleau
##culus
##ensia
##epine
##ereon
##ervis
##etsch
##iacum
##idula
##iesia
##ignac
##illan
##illii
##inald
##istle
##nders
##nuovo
##olson
##opach
##orage
##orrho
##oryth
##perma
##pfalz
##phyll
##ropia
##strum
##thong
##thuật
##ukawa
##undra
1772
3,5%
70%,
74%,
81%,
Bagn
Baut
Blog
Bouv
Boyd
Brew
Burr
Ceph
Chạp
Copp
Cory
Ella
Ered
Erie
Fork
Fouc
Garg
Goes
Goll
Guer
Heid
Juno
Kana
Kazu
Kear
Lead
Lens
Lins
Loud
Magh
Mama
Maul
Miel
Moch
Moto
Narc
Neom
Ngực
Perg
Pike
Pray
Prec
Putr
Rust
Sana
Sủng
Tata
Thap
Ushi
Vved
Wess
Whig
Wiss
Ypon
alex
atra
bomb
bưng
chir
chịt
cing
coel
root
scar
đước
Ương
##-1945,
##/2017.
##Michel
##Thomas
##andrum
##aranai
##astium
##aterin
##cacbon
##ellino
##encent
##erefre
##iantha
##igonum
##intosh
##istics
##iteles
##khotep
##lesias
##nevali
##ocline
##omyces
##omycin
##oporus
##riends
##urrens
##ycline
(1955
1792,
1793,
1836,
1943)
Akçak
Asota
Beria
Blade
Blanc
Board
Brass
Chanh
Chant
Chely
Creed
Crisp
Dalea
Dijon
Domit
Druce
Fring
Frost
Gamma
Gióng
Hayek
Hejaz
Image
Katie
Kindb
Miers
Oreop
Oskar
Oxira
Ozawa
Palai
Phrag
Ponce
Rukia
Salah
Samut
Sanga
Saray
Shink
Sleep
Sucre
Suite
Teneb
Teuch
Track
Tunku
Verne
Vicia
Vince
along
anten
asiat
chalc
color
luzon
metan
ngoãn
parva
plumb
rugby
techn
vitro
white
##Ariadna
##Dancing
##Dictyna
##Jacques
##astatin
##auensis
##chyroll
##eiensis
##eophora
##ladbach
##ressive
(1996)
Adidas
Amphis
Animal
Antony
Arabia
Ascoli
Baotix
Barton
Branch
Cannon
Casino
Centro
Concep
Consad
Daphne
Dollar
Foggia
Fujiko
Gaming
Goleni
Gynopl
Hawker
Heroes
Heyman
Keitel
Khuyết
Khuếch
Konami
Kurita
Macron
Macrop
Memory
Miocen
Modena
Molina
Nasser
Netany
Ngưỡng
Object
Oizumi
Passer
Reveal
Reysol
Rhagon
Romaja
Sahure
Scient
Splach
Sprint
Sumner
Tarawa
Tarsus
Thưởng
Triton
Trướng
Vespas
Wenger
Wizard
bromua
convex
grisea
khiêng
pounds
simoni
##Euophrys
##Zodarion
##arioides
##fflinger
##obrychis
##ocentrum
##oriensis
##yphyllum
(2000),
(2006).
Achille
Aladdin
Carolyn
Carrera
Chapuis
Claudio
Clemens
Collège
Cricket
Cupress
Daniels
Dendroc
Desmond
Eichler
Emerson
Ernesto
Extreme
Kessler
Kremlin
Latakia
Macrost
Melissa
Protoss
Rowling
Sakurai
Schultz
Sukarno
Tagalog
Theresa
Tuscany
Villanu
Yponome
Yucatán
caudata
commune
network
pseudom
superba
virgata
##Dolomedes
##elligence
2010-201
Arkalgud
Camellia
Caucasus
Dagestan
Davallia
Exchange
Gyeongju
Mahathir
Myristic
Oerlikon
Reporter
Shetland
Solskjær
Symphony
amabilis
olivacea
pallidus
subtilis
Anastasia
Cristóbal
Eriogonum
Gladiolus
Guadalupe
Hernández
Jharkhand
Linnaemya
Magdeburg
Mansfield
Neferefre
Oldenburg
Orchestra
Sideritis
Tuileries
Winehouse
Worldwide
Yuryevich
character
magnifica
##Deutschland
Acianthera
Bernadotte
Colubridae
Fitzgerald
Lepeletier
Limnophila
Rhagonycha
Sobekhotep
Volkswagen
filiformis
Crunchyroll
Gynoplistia
Hesperiidae
Neferirkare
Scarborough
hydrocacbon
Lonchocarpus
Notodontidae
Shostakovich
Tmesisternus
Coleophoridae
Fissurellidae
Myristicaceae
Vladimirovich
Wilhelmshaven
Dipseudopsidae
##-,
##.6
##:#
##>,
##BR
##PR
##Sl
##VH
##WP
##XD
##kr
##sn
##tứ
##ën
##ăl
##đồ
##ęb
##ți
##αν
##ем
##-02
##-53
##-7.
##-71
##/4,
##0.0
##13)
##134
##207
##768
##AFF
##Arm
##Ave
##Bob
##But
##Bác
##Bất
##CoA
##Cot
##Dic
##Dựa
##Hér
##Idi
##Inf
##Key
##Kon
##Lov
##Mim
##NES
##Nat
##Phù
##Reh
##Sad
##ags
##azy
##blo
##bok
##bye
##bức
##chl
##cik
##cur
##dek
##eof
##erz
##ffi
##hữu
##jee
##kea
##lao
##lef
##lob
##mol
##nya
##orb
##otu
##oty
##rof
##tsy
##uum
##wak
##çek
##–29
9:
KB
Rễ
UT
Wr
Xơ
hơ
mc
rú
sà
xỏ
Ám
Éd
Ấm
##15),
##Bath
##Biệt
##Doug
##Iran
##Prod
##Prot
##Szat
##Thất
##Tric
##Vahl
##amir
##aner
##axit
##bolu
##bram
##chạy
##dạng
##east
##epta
##erbo
##holm
##hoon
##idos
##illé
##indy
##irei
##isan
##leen
##leva
##lord
##meth
##mạnh
##neid
##nina
##olam
##olls
##orch
##pura
##rass
##thập
##thật
##tran
##ulpt
##urea
##utto
##yssa
##Được
"10
(43
(72
0-2
1–2
2.1
282
3,4
327
331
359
395
4.7
401
403
435
442
465
479
498
505
514
518
532
534
6,2
6,3
6,8
66.
690
8.1
AAS
AMC
Ait
Arb
Beb
Beş
Blo
Bắn
CYP
Cah
Goo
Hoy
Irm
Khổ
Kip
Kẽm
Lik
MeV
Már
Noi
Nok
Noz
Orc
Ork
Pyl
Sha
Spl
Vet
Yad
[3]
add
báp
bầm
fal
geo
gre
lap
lốm
mịt
nap
nức
ole
pao
sut
sym
syr
tox
vag
xíu
zir
đẩu
##-2000
##-2007
##Crazy
##Huang
##MEBOL
##Maria
##Metal
##Never
##Quang
##Sarat
##acina
##aegus
##asant
##asima
##chồng
##chứng
##cient
##doğan
##eldon
##elman
##ensus
##giope
##ignan
##imori
##incus
##ineum
##ingan
##iones
##iosum
##ngành
##odeon
##olana
##olini
##overn
##pheus
##pound
##riton
##teuff
##trình
##ukhov
##waluw
##érrez
(145
(155
1.29
13,5
1843
1847
2021
76%,
Adal
Albu
Altı
Audi
Bare
Biel
Bois
Bory
Bray
Caul
Chay
Chào
Clad
Dess
Dąbr
Easy
Eckl
Ezek
Fiat
Hiro
Hiệt
Hole
Hour
Hyuk
Jade
Kaun
Klug
Kors
Krap
Kình
Lada
Lant
Leth
Logo
Lola
Lưng
Meyr
Mitr
Much
Muss
Navy
Odin
Pops
Prav
Puya
Rise
Robb
Ruff
Sacc
Saul
Savo
Seen
Seph
Smic
Soái
Spod
Thuý
Toch
Tolk
Torp
Toru
Ubon
Writ
Zion
anti
blue
chận
core
dipl
fast
grav
kiết
laur
moth
turb
vầng
west
##Cardot
##Nelson
##Spring
##acilla
##alcomm
##angeli
##apagos
##arapet
##bachia
##bergii
##chatka
##cheong
##ecchio
##eldorf
##eptide
##ideros
##illips
##imanus
##ischer
##kowice
##nghiên
##ogalum
##ohmann
##phrena
##ribati
##saenda
##sonima
##unning
##waters
##yphona
(1939
1759.
1831,
1841,
1847,
2.400
2022.
5.500
Aegus
Aerof
Ambon
Artax
Audio
Bacon
Beats
Belur
Birds
Cisco
Cyril
Dewey
Diane
Domen
Draco
Dumas
Eight
Ellie
Galle
Globo
Guern
Hamad
Heine
Kırık
Logro
Meade
Michx
Odoac
Parap
Payne
Perak
Pieve
Piotr
Saleh
Saras
Shank
Sperm
Sphex
Stara
Suwon
Truth
Verdy
Yalta
alkyl
audio
calyc
camer
chang
chart
final
glazi
hoằng
macOS
manti
quàng
quáng
these
whose
Émile
##Admiral
##Diamond
##Erigone
##Moselle
##Schwägr
##Szatmár
##arachne
##ashvili
##elandra
##hampton
##idopsis
##oncidia
##opterix
##ostegia
##rochlor
##tachaea
##teuffel
##uroides
##érieure
23.000
Afrika
Aikido
Amelia
Apatan
Arenas
Barber
Beyond
Cambri
Coruña
Danser
Dawson
Didier
Evelyn
Fokker
Friend
Gallia
Gibbon
Gilles
Ground
Hajime
Joseon
Kirsch
Lights
Maduro
Magadi
Mandel
Mentuh
Myrmec
Norris
Pledis
Pohang
Ranger
Rokoss
Romano
Safari
Sobies
Zwaluw
cucull
khalip
nghiến
pluton
striat
tetrac
##Saratoga
##atissima
##icolidae
##ivittata
##osideros
Blanche
Bolzano
Breslau
Bridges
Celastr
Constan
Curtiss
Daniela
Elaeagn
Eternal
Fryxell
Gestapo
Grimmia
Haworth
Illustr
Ipswich
Jenkins
Manager
Marseul
Mogilev
Mycenae
Nicobar
Nicolás
Quentin
Ramírez
Raphael
Ruellia
Taranto
Unicode
Yellows
Yoshits
monoxit
nitidus
oblonga
parvula
student
##arginatus
##neriaceae
##opithecus
##temporary
##yssomanes
Adiantum
Agrostis
Anthocer
Aphthona
Brachyst
Buchanan
Deeleman
Economic
Encyclop
Freetown
Freiburg
Frédéric
Galeotti
Heracles
Isabelle
Pinochet
Plutarch
Reinhard
Sandwith
Svalbard
Toyotomi
fragilis
javanica
received
venezuel
##Casablanca
##ocorticoid
Abbeville
Architect
Authority
Baotixita
Byrsonima
Carnevali
Faboideae
Gomphrena
Hadrianus
Johansson
Lafayette
Letterman
Luxemburg
Meinander
Melaleuca
Mussaenda
Myrmeleon
Netanyahu
Oreopanax
Pınarbaşı
Salvatore
Wehrmacht
africanus
elliptica
humeralis
marmorata
municipal
streaming
##Microstylum
Activision
Aphelandra
Austerlitz
Bangarapet
Budějovice
Copernicus
Ectoedemia
Hemerobius
Krishnaraj
Lasianthus
Manteuffel
Pleistocen
Recordings
Scarbrough
Sutherland
Villanueva
##chengladbach
Calliostoma
Cyphostemma
Demosthenes
Montpellier
Northampton
Novosibirsk
Corylophidae
Meliphagidae
Zwaluwenburg
Cerithiopsidae
Anthocerotaceae
##.3
##:<
##GT
##Je
##KI
##Ly
##bỏ
##fs
##hô
##rō
##xê
##áš
##ër

##n
##h
##t
##i
##c
##g
##a
##o
##u
##m
##à
##r
##l
##đ
##e
##v
##s
##ư
##y
##.
##,
##á
##p
##b
##k
##d
##ộ
##ế
##ê
##T
##ô
##ạ
##1
##ó
##ả
##ệ
##ố
##â
##ủ
##ợ
##ớ
##ă
##ọ
##C
##0
##ờ
##ậ
##"
##N
##ấ
##ầ
##2
##ề
##ể
##ị
##q
##L
##ự
##ơ
##H
##9
##í
##ở
##S
##ã
##x
##B
##M
##ứ
##ì
##P
##Đ
##A
##ữ
##ụ
##(
##)
##V
##K
##8
##ồ
##ổ
##ú
##ắ
##ù
##5
##3
##D
##4
##ừ
##ò
##6
##7
##G
##ặ
##-
##ử
##ỉ
##ằ
##f
##R
##I
##ũ
##Q
##w
##ĩ
##ỏ
##E
##:
##é
##z
##ý
##ễ
##F
##W
##O
##ẩ
##ỳ
##J
##X
##ẫ
##ỗ
##ẽ
##U
##/
##ỹ
##;
##Y
##ỷ
##j
##ẻ
##%
##Ô
##ẹ
##è
##ỡ
##–
##'
##&
##õ
##Z
##Ấ
##ẳ
##Â
##Á
##]
##[
##ü
##ı
##Ở
##Ý
##Ủ
##ö
##Ú
##ỵ
##ẵ
##“
##”
##>
##<
##_
##ō
##=
##°
##?
##Ả
##!
##+
##ş
##​
##ç
##а
##|
##’
##о
##ł
##ğ
##и
##ä
##е
##н
##$
##р
##—
##ā
##ū
##Ç
##Ư
##č
##с
##ñ
##в
##т
##Ð
##к
##š
##л
##ć
##ń
##É
##王
##α
##×
###
##Í
##ř
##•
##ø
##*
##‘
##Ş
##д
##ß
##Ứ
##ا
##İ
##м
##ë
##у
##公
##й
##大
##ī
##ś
##ę
##皇
##~
##г
##μ
##Ö
##ě
##ș
##Î
##п
##ل
##−
##Ố
##ο
##б
##子
##я
##å
##ь
##ž
##Š
##า
##ą
##ы
##李
##ς
##Ō
##ч
##后
##æ
##ρ
##ν
##з
##′
##β
##ː
##太
##ï
##С
##文
##ر
##县
##山
##ي
##Ẩ
##К
##ι
##Č
##Ł
##τ
##國
##م
##ร
##天
##氏
##ň
##Ă
##ن
##Ê
##ε
##น
##ー
##安
##人
##λ
##の
##中
##Ś
##±
##́
##£
##主
##ŏ
##三
##帝
##明
##宗
##州
##ン
##­
##ż
##ē
##武
##ب
##元
##х
##Ü
##د
##」
##·
##В
##М
##之
##妃
##→
##А
##«
##»
##€
##「
##П
##、
##市
##ț
##γ
##德
##σ
##Ế
##π
##་
##Ó
##ǎ
##و
##劉
##κ
##ม
##孝
##ə
##Ž
##⁄
##イ
##国
##金
##เ
##和
##城
##区
##南
##Ż
##仁
##ц
##。
##ő
